{"[PAD]": 0, "[UNK]": 1, "[CLS]": 2, "[SEP]": 3, "[MASK]": 4, "<S>": 5, "<T>": 6, "._": 7, ",_": 8, "_": 9, "\uc774_": 10, "\uc758_": 11, "\uc744_": 12, "\uc5d0_": 13, "\"": 14, "(": 15, "\ud55c_": 16, "'": 17, "\uc740_": 18, ")": 19, "\uc774": 20, "\ub294_": 21, "\uc5d0\uc11c_": 22, "\uace0_": 23, "\ud588\ub2e4": 24, "\uac00_": 25, "\ub85c_": 26, "\uc9c0": 27, "\uc788\ub2e4": 28, "\ub3c4_": 29, "\uacfc_": 30, "\uc73c\ub85c_": 31, "\ub97c_": 32, "\ub2e4": 33, "\ud558\ub294_": 34, "\uc0ac": 35, "\uc2dc": 36, "\uae30": 37, "\ub300": 38, "\uace0": 39, "\uc218": 40, "\uac00": 41, ".": 42, "\uc218_": 43, "\uc804": 44, "\uc8fc": 45, "\uc77c": 46, "\ub9ac": 47, "\uc790": 48, "\uc815": 49, "\ud560_": 50, "\uc778": 51, "1": 52, "\uc544": 53, "\uc640_": 54, "\ubd80": 55, "\uc2a4": 56, "\uc778_": 57, "\ud558\uace0_": 58, "\ud574": 59, "\ubcf4": 60, "\uc720": 61, "\uc5b4": 62, "\uc774\ub2e4": 63, "\uc0c1": 64, "2": 65, ")_": 66, "\uc2e0": 67, "\uc6d0": 68, "\ubb34": 69, "\uc7a5": 70, "3": 71, "\ub9c8": 72, "\ube44": 73, "\uc870": 74, "\ub3d9": 75, "\uc81c": 76, "\ub85c": 77, "\ud574_": 78, "\uc18c": 79, "\uc131": 80, "\ub3c4": 81, "\uc9c0_": 82, "\uc138": 83, "\u2018": 84, "\ub098": 85, "\uc624": 86, "\ubbf8": 87, "\u201c": 88, "\uacf5": 89, "\ud558": 90, "\uc5f0": 91, "\uc788\ub294_": 92, "\uad6c": 93, "\ub77c": 94, "\uc7ac": 95, "\ud55c": 96, "\uc5ec": 97, "5": 98, "4": 99, "\uae30_": 100, "\ud55c\ub2e4": 101, "\ub41c_": 102, "\uc11c": 103, "\uc911": 104, "\uc9c4": 105, "\uc120": 106, "\ub0b4": 107, "\u201d": 108, "\ud654": 109, "'_": 110, "6": 111, "\uba85": 112, "\uac8c_": 113, "\uc6b0": 114, "\uc758": 115, "\ubaa8": 116, "\uba70_": 117, "\uadf8": 118, "\uc2e4": 119, "\uae40": 120, "-": 121, "\ub9cc": 122, "\u2019": 123, "\uacbd": 124, "\uce58": 125, "\u00b7": 126, "8": 127, "\ub4f1_": 128, "\uc548": 129, "7": 130, "\uac70": 131, "\uc804_": 132, "\ud2b8": 133, "\uc704": 134, "\ub2f9": 135, "\ud30c": 136, "\uac15": 137, "\ud638": 138, "\uc0b0": 139, "\ubc15": 140, "\ud0c0": 141, "\ub2e8": 142, "\uc694": 143, "%": 144, "\uad00": 145, "\ucc28": 146, "\ubd84": 147, "\uac83\uc73c\ub85c_": 148, "\ub4dc": 149, "\uc801\uc778_": 150, "\uc5d0\ub294_": 151, "\ud3ec": 152, "\uac83": 153, "9": 154, "\ubc29": 155, "\ubc1c": 156, "\uc790_": 157, "\uacc4": 158, "\ud604": 159, "\ub9cc_": 160, "\uc591": 161, "A": 162, "\ub0a8": 163, "\uc801": 164, "\uc785": 165, "\uac1c": 166, "\uae4c\uc9c0_": 167, "\ub9d0": 168, "\ubb38": 169, "\uc6a9": 170, "\ub178": 171, "\ubc18": 172, "\ubd88": 173, "\ubb3c": 174, "\uc2a4_": 175, "\uc601": 176, "\ud53c": 177, "\uc2ec": 178, "\ub9e4": 179, "\uc0dd": 180, "\ud558\uac8c_": 181, "\uad6d": 182, "\uc784": 183, "\ud559": 184, "S": 185, "\ubc30": 186, "\ud589": 187, "\ub300\ud55c_": 188, "\ud06c": 189, "\uce74": 190, "\uc801\uc73c\ub85c_": 191, "\uc885": 192, "\ub808": 193, "\uc5d0\uac8c_": 194, "\ubc95": 195, "\uc800": 196, "\uad50": 197, "\uadf8_": 198, "\uc801_": 199, "\uac10": 200, "\ucd9c": 201, "\ubc14": 202, "\uc5d0": 203, "\uc810": 204, "\uc11c_": 205, "\ub4e4": 206, "\uccb4": 207, "\ub4e4\uc774_": 208, "\uc9c0\ub09c_": 209, "\ud788_": 210, "\uae08": 211, "\ucd5c": 212, "\ub410\ub2e4": 213, "\uc5f4": 214, "\ub300_": 215, "\ub2c8": 216, "\ud1b5": 217, "\ucf54": 218, "\ucd94": 219, "10": 220, "\uc2dd": 221, "\ubc84": 222, "\uc608": 223, "\uc2b9": 224, "\uccad": 225, "\ubbfc": 226, "\ub9ac_": 227, "\uc2dc_": 228, "\ucc9c": 229, "\ub098_": 230, "\uc9d1": 231, "\ub41c\ub2e4": 232, "\uba74": 233, "\ud6c4": 234, "\ub4e4\uc740_": 235, "\ud558\uc9c0_": 236, "\ub9d0\ud588\ub2e4": 237, "\ubcd1": 238, "e": 239, "\ud615": 240, "C": 241, "\ub354_": 242, "\ud68c": 243, "\ud1a0": 244, "\uc5ed": 245, "\ucd08": 246, "\uacfc": 247, "\uba74_": 248, "\uad8c": 249, "\"_": 250, "\ub8e8": 251, "\ud0dc": 252, "\uc911_": 253, "\uc774\ub77c\uace0_": 254, "\uc5b4_": 255, "\uc57c": 256, "\uc77c_": 257, "\ub974": 258, "\uc5c8\ub2e4": 259, "\ud504": 260, "\uc18d": 261, "\uc5d0\uc11c\ub294_": 262, "\ub2ec": 263, "[": 264, "\uc0ac_": 265, "\uae09": 266, ":_": 267, "\ub450": 268, "\uc9c4_": 269, "\uc791": 270, "\uc0b4": 271, "\ud130": 272, "M": 273, "\ub77c\uace0_": 274, "\uc704\ud574_": 275, "\ucd1d": 276, "\ub4e4\uc758_": 277, "\uac04": 278, "\uc6d4": 279, "\ud658": 280, "\uba74\uc11c_": 281, "\ud2f0": 282, "\ud568\uaed8_": 283, "\uc124": 284, "\uc7a5_": 285, "\ud22c": 286, "\uc678": 287, "\uac74": 288, "P": 289, "\ubcf4\ub2e4_": 290, "\uc99d": 291, "\uc9c1": 292, "\uc57c_": 293, "\uc9c0\ub9cc_": 294, "\uacb0": 295, "0": 296, "\ub514": 297, "\uc6d0_": 298, "\ud1b5\ud574_": 299, "\ub2f4": 300, "\ub4dc_": 301, "\uac19\uc740_": 302, "\uad70": 303, "\ud328": 304, "\ubcf8": 305, "\uc740": 306, "t": 307, "\ub824": 308, "\ub610_": 309, "\uc11d": 310, "\ub2e4\ub978_": 311, "\ub420_": 312, "\ud0a4": 313, "\ud2b8_": 314, "\ub418\ub294_": 315, "\ud55c\uad6d": 316, "\uc5d0\ub3c4_": 317, "\ubaa9": 318, "\ud558\uc9c0\ub9cc_": 319, "\uc190": 320, "\uac04_": 321, "\ud3b8": 322, "\ubcf5": 323, "\uadf8\ub294_": 324, "\ub144": 325, "E": 326, "\uc808": 327, "\ub54c_": 328, "\ub7ec": 329, "\uc6b4": 330, "\ubd80_": 331, "\uac83\uc740_": 332, "\ub450_": 333, "20": 334, "\uaca9": 335, "\uc54c": 336, "\ud558\uba70_": 337, "\uc6cc": 338, "\ubd81": 339, "\ub300\ud574_": 340, "B": 341, "\ub358_": 342, "\ub77c\ub294_": 343, "s": 344, "\uc74c": 345, "\uac01": 346, "\uc9c8": 347, "\ub418\uc5c8\ub2e4": 348, "\ub370": 349, "\ud2b9": 350, "\u2026": 351, "\ub9de": 352, "\ubc1d\ud614\ub2e4": 353, "\ud3c9": 354, "\ub354": 355, "i": 356, "D": 357, "\ud558\uc600\ub2e4": 358, "\ub2e4_": 359, "\uc774\ud6c4_": 360, "]_": 361, "\ubc31": 362, "\uc9c0\ub294_": 363, "\ud569": 364, "\ud45c": 365, "\ucca0": 366, "m": 367, "\u2019_": 368, "\\": 369, "\ucc3d": 370, "\ube0c": 371, "\uc21c": 372, "\uac00\uc7a5_": 373, "a": 374, "\ud6c4_": 375, "{": 376, "\ucee4": 377, "\uc788": 378, "\ud558\uae30_": 379, "\ud310": 380, "\uc774\ub0a0_": 381, "?_": 382, "\ud558\ub2e4": 383, "\ud558\uc5ec_": 384, "\uc54a": 385, "\uac83\uc774\ub2e4": 386, "T": 387, "\ubc88": 388, "\ub418": 389, "u": 390, "\uc560": 391, "\uc0ac\uc6a9": 392, "\ub4e4\uc744_": 393, "\uc2b5\ub2c8\ub2e4": 394, "\uc548_": 395, "d": 396, "\ubd80\ud130_": 397, "\uad11": 398, "\uadfc": 399, "\ucde8": 400, "\uc544_": 401, "N": 402, "\uc57d": 403, "\ub780": 404, "\ub2f9_": 405, "\uac80": 406, "\uc120_": 407, "\ub54c\ubb38\uc5d0_": 408, "\ub124": 409, "\ucc98": 410, "\ub0b4_": 411, "\ud14c": 412, "\uc900": 413, "G": 414, "\uadf9": 415, "\ub825": 416, "\uc774\uc5c8\ub2e4": 417, "\uc1a1": 418, "\uc84c\ub2e4": 419, "\uc5c6\ub2e4": 420, "\uc2a4\ud0c0": 421, "\uc8fc_": 422, "\ucc44": 423, "o": 424, "L": 425, "\uace8": 426, "\uac83\uc774_": 427, "\uc5c5": 428, "\uadf8\ub7ec\ub098_": 429, "30": 430, "\uc11c\uc6b8": 431, "\uc724": 432, ">_": 433, "\uc5c6": 434, "\uc774\ub098_": 435, "\uc120\uc218": 436, "I": 437, "\ud3ed": 438, "\ub0a0": 439, "\ud558\uba74_": 440, "}": 441, "\ud669": 442, "\ubca0": 443, "O": 444, "\uc131_": 445, "\ub4f1": 446, ",": 447, "\ub54c": 448, "\ub9ce\uc740_": 449, "\uc988": 450, "\uc6b8": 451, "~": 452, "\ud568": 453, "\uc704_": 454, "\ub9c9": 455, "\uac83\uc744_": 456, "\uc655": 457, "\uaca8": 458, "\ubc94": 459, "\uc600\ub2e4": 460, "\uc81c_": 461, "\ud611": 462, "\uc774\uc5b4_": 463, "\ud56d": 464, "\ud070_": 465, "\ub3cc": 466, "\uac78": 467, "\uc7a1": 468, "\uad6c_": 469, "\ud76c": 470, "\ucd5c\uadfc_": 471, "n": 472, "\uac83_": 473, "\uba54": 474, "\uc558\ub2e4": 475, "\ud560": 476, "p": 477, "\uc815_": 478, "\uc4f0": 479, "\ud5a5": 480, "\ud788": 481, "\uc138_": 482, "\ub798": 483, "\ub3c5": 484, "\ubc29\uc1a1": 485, "\uc5c6\ub294_": 486, "\uae30\ub97c_": 487, "\ub958": 488, "\ubc0f_": 489, "K": 490, "\ubcc0": 491, "\uce58_": 492, "\uaddc": 493, "\ud5c8": 494, "\uc774\ubc88_": 495, "g": 496, "\ub9ac\ub294_": 497, "/": 498, "\uc640": 499, "\uc774\ub294_": 500, "R": 501, "200": 502, "\ud0c4": 503, "\uc545": 504, "\ub4a4_": 505, "\ub418\uace0_": 506, "\ub2e4\uc2dc_": 507, "\ub4f1\uc744_": 508, "\uc0dd\uac01": 509, "\ud574\uc57c_": 510, "\uc5b8": 511, "\ubc8c": 512, "\uc774\ub77c\ub294_": 513, "\uba38": 514, "\ub530\ub77c_": 515, "\ud68c_": 516, "\uac8c": 517, "\ud0c8": 518, "\ucc28_": 519, "\ub4e4\uc5b4": 520, "\ud558\uba74\uc11c_": 521, "\ud604\uc7ac_": 522, "\ubc00": 523, "\ub9b0_": 524, "\ubaa8\ub450_": 525, "\ucd95": 526, "\ub09c_": 527, "F": 528, "\ub3fc_": 529, "\ud588\ub358_": 530, "\ubbf8\uad6d_": 531, "\ud2b9\ud788_": 532, "\uc0c1_": 533, "\ub860": 534, "\uc644": 535, "\uc810_": 536, "18": 537, "19": 538, "\ub77c_": 539, "\ub2f9\uc2dc_": 540, "\uc0bc": 541, "\uc2dc\uc791": 542, "\uc0c9": 543, "\uc9c0\ub97c_": 544, "\uccab_": 545, "\ub9dd": 546, "\uac1c_": 547, "k": 548, "\ubabb": 549, "\ucda9": 550, "\uc774\uc5d0_": 551, "b": 552, "\uce5c": 553, "\ub4a4": 554, "\ub208": 555, "c": 556, "\uc9c0\ub09c\ud574_": 557, "\ubab0": 558, "\uc811": 559, "\ub2e8_": 560, "\ud64d": 561, "\uc9c8_": 562, "\uba85_": 563, "\ubcc4": 564, "\uc2dc\uc98c_": 565, "\uc774\ub7f0_": 566, "\ub108": 567, "\uc528\ub294_": 568, "\ub144_": 569, "%_": 570, "\uc788\uc5c8\ub2e4": 571, "U": 572, "\uc774\ub97c_": 573, "\ube14": 574, "\uc544\uc774": 575, "\uacbd\uc6b0_": 576, "\uc0ac\ub78c": 577, "\uad6d\ubbfc": 578, "\uad70_": 579, "\ub4e4_": 580, "\ub530\ub974\uba74_": 581, "H": 582, "\ucfe0": 583, "\uce68": 584, "\ub09c": 585, "\ud37c": 586, "\uc790\uc2e0\uc758_": 587, "\ub825\uc744_": 588, "\uc628_": 589, "<": 590, "\ud074": 591, "\ud32c": 592, "\uc5d0\uc11c\ub3c4_": 593, "\uc798_": 594, "\ub9ac\uadf8_": 595, "\uae00": 596, "\uc77c\ubcf8": 597, "\ub294": 598, "\uad8c_": 599, "\uc544\ub2c8": 600, "15": 601, "\uc704\ud55c_": 602, "h": 603, "\uc77c\ubcf8_": 604, "\uacf3": 605, "\uae08_": 606, "\uc7a5\uc740_": 607, "\uc62c": 608, "\ucc29": 609, "\ubd84_": 610, "\uacbd\uae30": 611, "\ub370_": 612, "\uc55e": 613, "\uce21": 614, "\ubc1b": 615, "\ub9ce\uc774_": 616, "\uae4c": 617, "\uc5b5": 618, "\uc9c4\ud589": 619, "\uc2ac": 620, "\uadc0": 621, "\uc810\uc744_": 622, "\uc57d_": 623, "\uae38": 624, "\uc0b0_": 625, "\ub418\uc5b4_": 626, "\uad00\uacc4\uc790\ub294_": 627, "\uc7a5\uc744_": 628, "e_": 629, "l": 630, "\uc904": 631, "\uc0ac\uc774": 632, "\uc5c6\uc774_": 633, "\ud50c": 634, "\ud588": 635, "\ubab8": 636, "\ub4e4\uc5d0\uac8c_": 637, "\ub77c\uc774": 638, "\uc790\uac00_": 639, "\ub838\ub2e4": 640, "\ud398": 641, "\uae30\uc5d0_": 642, "\ud63c": 643, "\uac08": 644, "\ub5a0": 645, "\uc5ec_": 646, "\uba39": 647, "\uc785\ub2c8\ub2e4": 648, "\ub3d9\uc548_": 649, "\ud544": 650, "\uace1": 651, "\ub824_": 652, "\ud488": 653, "\ub300\ud45c": 654, "16": 655, "\uae30\ub85d": 656, "\ubd09": 657, "\uc624\ud6c4_": 658, "11": 659, "\ud558\uace0": 660, "\ub294\ub370_": 661, "\ub18d": 662, "\uc5f0\uad6c": 663, "\uae30\ub3c4_": 664, "\ub9bd": 665, "\uc11c\uc6b8_": 666, "\ud574\uc11c_": 667, "\ub410": 668, "\uacbd\uae30_": 669, "\uc528": 670, "\uc0c8": 671, "\ub05d": 672, "\ud615_": 673, "\uc73c\uba70_": 674, "\ub77d": 675, "\uc9c0\ub9cc": 676, "\uc5ed\uc2dc_": 677, "\ub8cc": 678, "\uc6b4_": 679, "\ub204": 680, "\uc838_": 681, "\ucc38": 682, "\ud504\ub85c": 683, "\ud6a8": 684, "\uc5c8": 685, "\ud480": 686, "\ub9ac\ub97c_": 687, "v": 688, "\uc18c_": 689, "\uad50\uc721": 690, "\ud300": 691, "\ud55c\uad6d_": 692, "\uc751": 693, "\uc54a\uc558\ub2e4": 694, "12": 695, "\ud575": 696, "J": 697, "\ubaa8\ub4e0_": 698, "\ub2a5": 699, "\uc815\uce58": 700, "\uc219": 701, "\ub4f1\uc758_": 702, "\uac74_": 703, "W": 704, "\uadf8\ub9ac\uace0_": 705, "\ud3d0": 706, "\uc2dd_": 707, "\ud654_": 708, "\uc220": 709, "\uacf5\uac1c": 710, "\ud638_": 711, "\ub2d8": 712, "\uac1d": 713, "\uc774\uc5b4": 714, "\uc721": 715, "\uc774\uc6a9": 716, "\uc88c": 717, "\uc804\ud588\ub2e4": 718, "\uc7a0": 719, "\ub9c8_": 720, "\ub0a0_": 721, "\u201d_": 722, "\uad6d_": 723, "\uac00\uc6b4\ub370_": 724, "V": 725, "y": 726, "\uc788\ub2e4\ub294_": 727, "\uc73c": 728, "\uc158": 729, "\ud0dd": 730, "\ub192": 731, "\ub9cc\uc5d0_": 732, "\uc73c\ub85c": 733, "\ud48d": 734, "\uba85\uc774_": 735, "\ub3d9_": 736, "`": 737, "\uacbd\ucc30": 738, "\uc2e0_": 739, "\ubcfc_": 740, "\uacbd\uc81c": 741, "\ud06c_": 742, "\uc62c_": 743, "\uc870_": 744, "\uae30\ub294_": 745, "\uc54a\uc740_": 746, "\ub4e4\uacfc_": 747, "\ubc14_": 748, "\ub9b0": 749, "\ub825_": 750, "\ubbf8_": 751, "\ub098\ub294_": 752, "\ub118": 753, "\ub610\ud55c_": 754, "\uc73c\uba74_": 755, "\ud55c\ud3b8_": 756, "\u300a": 757, "\u300b": 758, "100": 759, "\uc0ac\ub294_": 760, "\uadf8\uc758_": 761, "\uc2f8": 762, "\uae30\uac00_": 763, "\uae30\uc5c5": 764, "\ud559\uad50": 765, "\uc624\ub294_": 766, "\ucc2c": 767, "\uacac": 768, "\uae34_": 769, "\uba85\uc758_": 770, "-_": 771, "\uacc4_": 772, "\uc9c0\uace0_": 773, "\ubc15_": 774, "\ub3cc\uc544": 775, "f": 776, "50": 777, "\uac10\ub3c5": 778, "\uc790\ub294_": 779, "\uc628": 780, "\ud5cc": 781, "\ubcfc": 782, "\uc84c": 783, "\uc9c0\uc5ed": 784, "\uc8fd": 785, "\uba85\uc744_": 786, "\uae09_": 787, "\ucd9c\uc5f0": 788, "r": 789, "\ube60": 790, "\uc131\uc744_": 791, "?": 792, "\ub110": 793, "\uc561": 794, "\uad6d\uac00": 795, "\uc5f4\ub9b0_": 796, "\ud604_": 797, "\ucabd": 798, "\uac00\ub294_": 799, "199": 800, "\uc5d4": 801, "\ub2c8_": 802, "\uae40_": 803, "\ud734": 804, "in": 805, "\uc640\uc758_": 806, "\uc218\ub294_": 807, "\ucc3e": 808, "\ub808\uc774": 809, "\ud61c": 810, "17": 811, "\ub839": 812, "\ub4f1\uc774_": 813, "\uc6b0\ub9ac_": 814, "\uac19\ub2e4": 815, "\uc11c\ub294_": 816, "\uc6a9_": 817, "\uc9d5": 818, "\uadf8\ub7ec": 819, "\ub9ac\uac00_": 820, "\uc704\ub97c_": 821, "\uc654\ub2e4": 822, "\ub418\uc9c0_": 823, "\uc774\uc0c1_": 824, "\ud314": 825, "\ub9cc\ud07c_": 826, "\uac00\uc871": 827, "\uc911\uad6d_": 828, "\ud310\ub9e4": 829, "\ub294\ub370": 830, "\ubc1b\uace0_": 831, "40": 832, "\uc73c\uba70": 833, "\ub984": 834, "an": 835, "\ub9bc": 836, "\uc0c1\ud0dc": 837, "\uc790\uc758_": 838, "\uc874": 839, "\uc138\uacc4": 840, "\uc544\ub2c8\ub77c_": 841, "\ud6c4\ubcf4": 842, "\ud55c\ub2e4\ub294_": 843, "\uc555": 844, "\ubc1b\uc740_": 845, "\uc0c1\uc744_": 846, "\ub530": 847, "\uc2a4\ub97c_": 848, "\ub9e1": 849, "\ubcf4\uace0_": 850, "\ucc98\ub7fc_": 851, "\ub298": 852, "\ud1f4": 853, "\uad00\uacc4": 854, "\uc2a4\ub294_": 855, "\ubb38\uc81c": 856, "\uc62c\ud574_": 857, "\uc2b5": 858, "\uc744": 859, "\uc54a\uace0_": 860, "\uc88b\uc740_": 861, "\uce20": 862, "\uc6b0\ub9ac": 863, "\ube44_": 864, "\ub355": 865, "\ubbf8\uad6d": 866, "\uc558": 867, "\uc2dc\uccad": 868, "\ub9ce": 869, "\uc774\ub77c\uba70_": 870, "\uc554": 871, "\uce5c_": 872, "\ubb38_": 873, "\ub2c8\ub2e4": 874, "\uc0ac\ud68c": 875, "\ud559\uc0dd": 876, "\uc815\ucc45": 877, "\uc774\uace0_": 878, "\ubcf4\uc778\ub2e4": 879, "\uc600": 880, "\uc228": 881, "\uacb0\uc815": 882, "\uce6d": 883, "\uacfc\uc758_": 884, "\ud5e4": 885, "\ud6c8": 886, "\uc2a4\ud2b8": 887, "\u00b7_": 888, "\ud655\uc778": 889, "\ud2c0": 890, "\uc0ac\uc5c5": 891, "\uc218\uac00_": 892, "\uc790\ub97c_": 893, "w": 894, "\uacb0\uad6d_": 895, "\uacc4\ud68d": 896, "\uc88b": 897, "\ucc45": 898, "\uc0c1\ud669": 899, "\uc8e0": 900, "\ub7ec_": 901, "\ub4dd": 902, "\ub193": 903, "\ub9d0_": 904, "\ubc88_": 905, "\uc804\uc5d0_": 906, "\uacf5\uaca9": 907, "\uc788\uc5b4_": 908, "\uaca0": 909, "\uc5fc": 910, "\ub0ac\ub2e4": 911, "\uaca0\ub2e4": 912, "\ubc1b\uc558\ub2e4": 913, "\ub54c\ubb38\uc774\ub2e4": 914, "\uc5ed_": 915, "\ub358": 916, "\uc5bb": 917, "\uc704\uc6d0": 918, "\ubbfc\uc8fc": 919, "\uc131\uacf5": 920, "\uad6d\ub0b4_": 921, "\ub0d0": 922, "\uc911\uad6d": 923, "\ub300\ub85c_": 924, "\uc138\uacc4_": 925, "\uacbd\uc7c1": 926, "\ubaa8\uc2b5": 927, "\uc815\uc744_": 928, "\uc7a5\uc774_": 929, "\uac00\ub2a5": 930, "\uc778\uc774_": 931, "\ud588\uc9c0\ub9cc_": 932, "\uc0ac\ub97c_": 933, "\uc2f1": 934, "\ud588\uace0": 935, "\uae08\uc735": 936, "25": 937, "\ubc88\uc9f8_": 938, "\uc788\uc744_": 939, "\ud3ec\ud568": 940, "\uc2dc\uac04": 941, "\ub7c9": 942, "\ud65c": 943, "\uacb0\ud63c": 944, "\ub2f5": 945, "\uc5b4\ub5a4_": 946, "\uadf8\ub7f0_": 947, "\uac16": 948, "\uc788\ub2e4\uace0_": 949, "\uc5c4": 950, "\uc218\uc900": 951, "\uc218\ub97c_": 952, "\ub098\ud0c0": 953, "\ub9ac\uace0_": 954, "\ub4dc\ub7ec": 955, "\uc0c8\ub85c\uc6b4_": 956, "\uc775": 957, "\uc73c\ub098_": 958, "\uc774\ubbf8_": 959, "\ubaa8\uc2b5\uc744_": 960, "\uc5d4_": 961, "\ub274": 962, "\uc9c0\uc6d0": 963, "\ub290": 964, "\uc77c\ubd80_": 965, "\uc900_": 966, "\uae30\ub85c_": 967, "\ubc14\ub85c_": 968, "\uc6c0": 969, "\ub370\uc774": 970, "\ubaa8\ub378": 971, "\uc624\uc804_": 972, "\uc788\uc5c8": 973, "er": 974, "\ubcf8_": 975, "\ub180": 976, "\uc788\uc2b5\ub2c8\ub2e4": 977, "\ud65c\ub3d9": 978, "\ud3c9\uac00": 979, "\uac1c\ubc1c": 980, "\ud588\ub2e4\uace0_": 981, "\uc9c1\uc811_": 982, "\uc871": 983, "\uce35": 984, "\ud588\uc2b5\ub2c8\ub2e4": 985, "\uc1fc": 986, "\ubd99": 987, "\uac19": 988, "\uc124\uba85\ud588\ub2e4": 989, "\ud601": 990, "\ud655": 991, "\ud589_": 992, "\ubc1c\uacac": 993, "\ub0b8_": 994, "\ubc95_": 995, "\uc18c\ube44": 996, "\uc870\uc0ac": 997, "\uac10\ub3c5\uc740_": 998, "\ub2ec\ub7ec": 999, "\ub77c\uba70_": 1000, "=": 1001, "\uac19\uc774_": 1002, "\ubd80\ub294_": 1003, "\ud300_": 1004, "\ube48": 1005, "\uc81c\uc791": 1006, "\ub73b": 1007, "en": 1008, "\uc0ac\ub791": 1009, "\uac10\uc744_": 1010, "\uc18d_": 1011, "\uc2a4\uc758_": 1012, "\uc704\uc5d0_": 1013, "\uc5b8\ub860": 1014, "\uc13c": 1015, "\uc81c\uac00_": 1016, "\ub07c": 1017, "\ud765": 1018, "\uad00\ub828_": 1019, "\uac83\ub3c4_": 1020, "\uc911\uc559": 1021, "\ud130_": 1022, "\uacb0\uacfc": 1023, "\ubd84\uc11d": 1024, "\ub0b4\uc6a9": 1025, "\uc5ec\ub7ec_": 1026, "\ud558\ub098": 1027, "\ucc0d": 1028, "\ub300\ub97c_": 1029, "\uc6b0_": 1030, "\ud2b8\ub97c_": 1031, "\uc120\uc744_": 1032, "\uc9c0\uac00_": 1033, "1\ub144_": 1034, "\uacbd\uc6b0": 1035, "\ubcf4\uc600\ub2e4": 1036, "\ub5a8\uc5b4": 1037, "\uc904_": 1038, "\uc77c\uc744_": 1039, "\ub9b4_": 1040, "\uc601\ud654": 1041, "\ub9cc\uc6d0": 1042, "\uc6e8": 1043, "\uad00_": 1044, "14": 1045, "\ub7f0": 1046, "\uac01_": 1047, "~_": 1048, "X": 1049, "\uc5f0_": 1050, "\ub108\ubb34_": 1051, "\ubc18_": 1052, "\uc0ac\uc9c4": 1053, "\ub825\uc774_": 1054, "\uc7a5\uc5d0\uc11c_": 1055, "\ub192\uc740_": 1056, "\ud0c1": 1057, "\uc544\ub2c8\ub2e4": 1058, "\uc8fc\ub294_": 1059, "\uc528\uac00_": 1060, "\uc6b4\uc601": 1061, "\uc218\ub3c4_": 1062, "\ub610\ub294_": 1063, "\uae30\uc220": 1064, "\ub300\ud1b5\ub839": 1065, "\ub840": 1066, "\ubc1c\uc0dd": 1067, "\ud569\ub2c8\ub2e4": 1068, "\ucc44_": 1069, "\ub3c4\ub97c_": 1070, "\ucd95\uad6c": 1071, "\uc728": 1072, "\ubb38\ud654": 1073, "\uc838": 1074, "\uae38_": 1075, "\uc6d0\uc744_": 1076, "\uc625": 1077, "\uc758\ubbf8": 1078, "\uc0ac\uac00_": 1079, "\ucce4\ub2e4": 1080, "\uad00\ub828": 1081, "\ub294\ub2e4": 1082, "\uc774\uc0c1": 1083, "\uc804\uc744_": 1084, "\ub4e0_": 1085, "\ub838": 1086, "\ub4e0": 1087, "\uc0dd\ud65c": 1088, "\uc77c\uc774_": 1089, "\ud2b9\ubcc4": 1090, "\uac1c\uc758_": 1091, "\ub2ec_": 1092, "13": 1093, "\uc778\uc758_": 1094, "\ub098\ub77c": 1095, "on": 1096, "\uc0ac\uac74": 1097, "\uce58\ub294_": 1098, "198": 1099, "\uc0ac\uc2e4": 1100, "3\ub144_": 1101, "\uc2dc\uac04_": 1102, "\uc54a\ub294_": 1103, "\uc778\uc744_": 1104, "\uc544\ubc84": 1105, "LG": 1106, "\ucc38\uc5ec": 1107, "\uc2ed": 1108, "\uc790\uc2e0": 1109, "\uc774\ub984": 1110, "\uac08_": 1111, "\ub9ac\uadf8": 1112, "\uc54c\ub824\uc84c\ub2e4": 1113, "\uad6d\uc81c": 1114, "\uc2e4_": 1115, "\ubcf4\uba74_": 1116, "\uae34": 1117, "\uc138\ub97c_": 1118, "or": 1119, "\ub4e4\ub3c4_": 1120, "\uc2a4\uac00_": 1121, "\ucd1d_": 1122, "\uc8fc\ud0dd": 1123, "\uc0c8_": 1124, "\uc194": 1125, "\uac11": 1126, "24": 1127, "\ucf5c": 1128, "\uc695": 1129, "\uac70\ub098_": 1130, "\ube4c": 1131, "\uc774\ub3d9": 1132, "\ubcf4\ub294_": 1133, "\uc131\uc774_": 1134, "\uc81c\uacf5": 1135, "\ucf00": 1136, "\uc5bc": 1137, "\ud588\uace0_": 1138, "\uad81": 1139, "\ubc1c\ud45c": 1140, "\uc774\uc720": 1141, "\ub54c\ubb38": 1142, "\uc794": 1143, "\uc694\uad6c": 1144, "\ud559\uad50_": 1145, "\ud06c\uac8c_": 1146, "\uc5b4\uc694": 1147, "\ub354\uc6b1_": 1148, "\ub300\ud559": 1149, "\ud504\ub85c\uadf8\ub7a8": 1150, "\uc11d_": 1151, "\uadf8\ub807": 1152, "\ubd80\ub2f4": 1153, "\uac8c\uc784": 1154, "\ub85c\ub294_": 1155, "\uac00\uc9c0_": 1156, "\ub0a8_": 1157, "\ub9e5": 1158, "ar": 1159, "\ub9c8\uc74c": 1160, "\ub17c": 1161, "\uc77c\uc5d0_": 1162, "\ucc30": 1163, "\uae08\uc744_": 1164, "Y": 1165, "\uba3c": 1166, "\uc18c\uc18d": 1167, "\ud0c0_": 1168, "\uc560\ud50c": 1169, "\ud53c\ud574": 1170, "\uc55e\uc11c_": 1171, "\uc54a\uc558": 1172, "\ub9e8": 1173, "\uc601_": 1174, "\ucd09": 1175, "\uc0ac\ub9dd": 1176, "\ubc30\uc6b0": 1177, "\uc81c\ub97c_": 1178, "\uc120\uac70": 1179, "\ud558\ub358_": 1180, "\ub0b4\uac00_": 1181, "\ub0c8\ub2e4": 1182, "\uc6d0\uc740_": 1183, "\ub3c8": 1184, "\uc9c4\ub2e4": 1185, "\uad34": 1186, "\uc5c5\uccb4": 1187, "\uade0": 1188, "\uc6d0\uc774_": 1189, "\ud798": 1190, "\ucabd_": 1191, "\uc5b5_": 1192, "\uc99d\uac00": 1193, "\ubabb\ud588\ub2e4": 1194, "\uc5d0\uc11c": 1195, "\uc774\uc5c8": 1196, "\uc8c4": 1197, "\uac14\ub2e4": 1198, "\ub85c\ubd80\ud130_": 1199, "\ub780_": 1200, "\ub0ae": 1201, "\uace8\uc744_": 1202, "\uc73c\ub85c\ub294_": 1203, "\ub85d": 1204, "\uc74c\uc545": 1205, "\uac70_": 1206, "s_": 1207, "\ub2e4\uc591\ud55c_": 1208, "\uc990": 1209, "A_": 1210, "\uad6c\uc870": 1211, "\uc740\ud589": 1212, "\ub140": 1213, "\uac15_": 1214, "60": 1215, "\uc544\ub2cc_": 1216, "\ud558\uae30\ub3c4_": 1217, "\uc5b4\ub5bb\uac8c_": 1218, "\uc288": 1219, "\uae30\uc790": 1220, "\ub178_": 1221, "\uc12d": 1222, "\ub80c": 1223, "\uc544\uc9c1_": 1224, "\ud718": 1225, "\ucd5c\uace0": 1226, "\uc81c\ud488": 1227, "\uc120\ud0dd": 1228, "\uc8fc\uc7a5": 1229, "\ubb38\uc744_": 1230, "\ud1b5\uc2e0": 1231, "\ubb3c_": 1232, "\ub2e4\uc74c": 1233, "\uc2f6": 1234, "\uc654": 1235, "\ubb3c\ub860_": 1236, "\uac80\ucc30": 1237, "\uc788\ub358_": 1238, "\ubc30_": 1239, "\uc790\uc720": 1240, "\uc815\ubd80_": 1241, "\uc9c0\ubc29": 1242, "\ub4f1\uc7a5": 1243, "\ub9c8\ub828": 1244, "\ub529": 1245, "\uc624_": 1246, "\ub9d0\uc744_": 1247, "\ub2e4\ub294_": 1248, "\ub79c\ub4dc_": 1249, "\ud604\uc7ac": 1250, "\ucd08_": 1251, "\uc8fc\uc758": 1252, "\uc804\uc7c1": 1253, "\uc804\uc5d0\uc11c_": 1254, "\uc790\ub85c_": 1255, "\uc9c1_": 1256, "\ubd84\uc704": 1257, "\ub4f1\uc5d0_": 1258, "\uac01\uac01_": 1259, "\uae30\uc900": 1260, "\uc608\uc815\uc774\ub2e4": 1261, "\uc608\uc815": 1262, "\u25c7_": 1263, "\ud55c\ub2e4\uace0_": 1264, "\uc8fc\uc758_": 1265, "\ucee8": 1266, "\uba64\ubc84": 1267, "\uae68": 1268, "\ub123": 1269, "\ubd10": 1270, "\uc900\ube44": 1271, "\uacbd\uae30\ub97c_": 1272, "\uc18c\ub4dd": 1273, "\ud574\ub3c4_": 1274, "\uad8c\uc744_": 1275, "\ud6c8\ub828": 1276, "\uc6d0\uc758_": 1277, "\ucd2c\uc601": 1278, ":": 1279, "\ub418\uc5c8": 1280, "\ub0a9": 1281, "\uc885_": 1282, "\uc158_": 1283, "\ud648": 1284, "\uce21\uc740_": 1285, "\uc800_": 1286, "\uc62c\ub77c": 1287, "\ub3c4\uac00_": 1288, "\uc774\ubc88": 1289, "28": 1290, "\uc778\uc815": 1291, "\uba70": 1292, "x": 1293, "4\uc6d4_": 1294, "\uc9c0\ub3c4_": 1295, "\uc774\ub807\uac8c_": 1296, "\ub300\uc5d0_": 1297, "\uc5c6\uc5c8\ub2e4": 1298, "\uc9c0\ub09c\ub2ec_": 1299, "\uc81c\uae30": 1300, "\ubca4": 1301, "\uc9c0\uae08_": 1302, "\uad00\ub9ac": 1303, "\ub179": 1304, "\uce74_": 1305, "\uc7a5\uc758_": 1306, "\uc0c1\uc2b9": 1307, "\uacc4\uc18d_": 1308, "\uc801\uc774_": 1309, "\uc9d1_": 1310, "\ub9c1": 1311, "\ud588\ub2e4\ub294_": 1312, "\ub960": 1313, "9\uc6d4_": 1314, "\uc601\ud654_": 1315, "\uc0ac\uc758_": 1316, "\uc7ac_": 1317, "\uae30\ub300": 1318, "\ubc15\uc9c0": 1319, "\uacbc\ub2e4": 1320, "\ub9c8\uc774": 1321, "5\uc6d4_": 1322, "6\uc6d4_": 1323, "\uac00\ub2a5\uc131\uc774_": 1324, "!_": 1325, "\uc870\uc120": 1326, "\ud750": 1327, "\ub178\ub3d9": 1328, "3\uc6d4_": 1329, "7\uc6d4_": 1330, "\ubb38\uc81c\uac00_": 1331, "\ud504_": 1332, "\uacc4\uc57d": 1333, "\uc2dc\uc98c": 1334, "\ub791": 1335, "\ubc29_": 1336, "\ud134": 1337, "\ub144\uc5d0_": 1338, "\ud478": 1339, "\u318d": 1340, "\uc774\uba70_": 1341, "\uc758\ud574_": 1342, "\ub458": 1343, "2\ub144_": 1344, "\uc911\uc778_": 1345, "\ucf00\uc774": 1346, "10\uc6d4_": 1347, "\uacbd\uae30\uc5d0\uc11c_": 1348, "\uce90": 1349, "\ubcf4\ud5d8": 1350, "a_": 1351, "\ud0a4_": 1352, "27": 1353, "\uc2dc\ud0a4": 1354, "\ud0c0\uc774": 1355, "\uc5d8": 1356, "\uc2ec_": 1357, "\uc6c3": 1358, "\ubd80\ub97c_": 1359, "8\uc6d4_": 1360, "\ub978_": 1361, "\uce58\uace0_": 1362, "26": 1363, "\uac12": 1364, "\ub86f\ub370": 1365, "\uc9d3": 1366, "\ud3c9\uade0_": 1367, "\ub300\ud1b5\ub839\uc740_": 1368, "\uc9c4\ucd9c": 1369, "\ub728": 1370, "\u25c6_": 1371, "\uc758\uc6d0": 1372, "\uc774\ub904": 1373, "12\uc6d4_": 1374, "\uc54a\ub294\ub2e4": 1375, "\uc5ec\uc131": 1376, "\ud558\uc600": 1377, "\uc9c0\uc5d0_": 1378, "\ub8cc_": 1379, "\ub78c": 1380, "\uace0\ub824": 1381, "]": 1382, "TV": 1383, "\uc6b0\ub824": 1384, "\uc778\uc740_": 1385, "\uad6c\uc131": 1386, "\ub3fc": 1387, "1\uc6d4_": 1388, "\uc885\ud569": 1389, "\ub099": 1390, "\ucc99": 1391, "\uc801\uc6a9": 1392, "\ud3f4": 1393, "\uccd0": 1394, "\ubcf4\uc5ec": 1395, "\uc774\ub77c": 1396, "\ub290\ub0d0": 1397, "\ub4dc\ub77c\ub9c8_": 1398, "\uc2dc\ubbfc": 1399, "\ubca8": 1400, "\ud3bc": 1401, "\uba87_": 1402, "\u223c": 1403, "\uc804\ub9dd": 1404, "\uc874\uc7ac": 1405, "\uc0e4": 1406, "\ubcf4\uace0": 1407, "29": 1408, "\uc2dd\uc744_": 1409, "\uc5f0\uc608": 1410, "\uc591_": 1411, "\ub300\ud1b5\ub839_": 1412, "\ub9e4\uc6b0_": 1413, "\ube44\ud310": 1414, "\uc528_": 1415, "\uc7c1": 1416, "MBC_": 1417, "\uc77c\ubc18": 1418, "\ubb3c\uc744_": 1419, "\ub298\uc5b4": 1420, "\uc2a4\ud3ec\uce20": 1421, "\ub9f9": 1422, "\ubd81\ud55c": 1423, "\ub04c": 1424, "\uc528\uc758_": 1425, "\uc77c\uc5b4": 1426, "\uc790\ub9ac": 1427, "\uc124_": 1428, "\ub798_": 1429, "\ub2e4\uc74c_": 1430, "\ub418\uba74_": 1431, "\uc0ac\uace0": 1432, "21": 1433, "\ud305": 1434, "\uc77c\ubd80\ud130_": 1435, "\ub367\ubd99\uc600\ub2e4": 1436, "\ud604\ub300": 1437, "\ucd94\uac00": 1438, "\uc778\ud574_": 1439, "\uc8fc\ub85c_": 1440, "\uc6b4\ub3d9": 1441, "\ucd5c\ub300_": 1442, "\ub3c4\ub85c_": 1443, "\uc774\ub77c_": 1444, "\ubcf4_": 1445, "\ub450\uace0_": 1446, "\uacb0\uacfc_": 1447, "\uc0b4_": 1448, "\uce58\ub97c_": 1449, "\uc774\ud558_": 1450, "\ub9ad": 1451, "at": 1452, "\uae30\uc758_": 1453, "\ub4e4\uc5b4_": 1454, "\uc6d0\uc5d0_": 1455, "\uc54a\ub2e4": 1456, "\uc601\uad6d_": 1457, "\ud640": 1458, "\ub4dc\ub294_": 1459, "\uc5bc\uad74": 1460, "\uacbd_": 1461, "\uc608\uc0c1": 1462, "\ucf58": 1463, "\uadf8\ub8f9_": 1464, "\uace0\uac1d": 1465, "\uc815\ubcf4": 1466, "\uadf8\ub7f0\ub370_": 1467, "\ube0c_": 1468, "\ubfd0": 1469, "\uc154": 1470, "\uc5b5\uc6d0": 1471, "\uc7a5\uc5d0_": 1472, "\ud22c\uc790": 1473, "\ud310_": 1474, "\uc5d0\uc120_": 1475, "\ubc30\uc6b0_": 1476, "\uc9c0\uc758_": 1477, "\uc2dc\uc7a5_": 1478, "\ub9ac\uc544": 1479, "\ubc29\uc1a1_": 1480, "\uc9c0\uc5ed_": 1481, "\ub300\uc758_": 1482, "\uc790\ub4e4\uc774_": 1483, "70": 1484, "\uce7c": 1485, "\ube0c\ub77c": 1486, "\uc815\ub9d0_": 1487, "\uc131\uc740_": 1488, "\uc0c1\ub300": 1489, "\uc790\ub4e4\uc758_": 1490, "\u25b2": 1491, "23": 1492, "\uc5b4\ub824": 1493, "\uc758\ud639": 1494, "\uc784_": 1495, "\ub3c4\ub85d_": 1496, ">": 1497, "\ub274\uc2a4": 1498, "\uc988_": 1499, "\uc728_": 1500, "\ub2ec\ub77c": 1501, "\ucc38\uc11d": 1502, "\uc2dc\ub294_": 1503, "\ud56d\uacf5": 1504, "&": 1505, "\ud3f0": 1506, "\uba3c\uc800_": 1507, "\uc0bc\uc131": 1508, "\uac16\uace0_": 1509, "\uc774\ud0c8": 1510, "22": 1511, "\uacbd\ud5d8": 1512, "\ud76c_": 1513, "\uad6d\uc758_": 1514, "\ube44\ud574_": 1515, "+": 1516, "\uc8fc\uc694_": 1517, "\ubd80\uc871": 1518, "\ub0ac": 1519, "\uac70\ub798": 1520, "\uc6d0\uc5d0\uc11c_": 1521, "\uc774\uba70": 1522, "\uc6b8_": 1523, "11\uc6d4_": 1524, "\ub2e8\uccb4": 1525, "\uc218\uc758_": 1526, "\ub4f1\uc73c\ub85c_": 1527, "\uc120\uc218_": 1528, "\ud45c\ud604": 1529, "\ubc1b\ub294_": 1530, "\uc815\ubd80": 1531, "!": 1532, "\uc12c": 1533, "\uc11c\ub97c_": 1534, "d_": 1535, "1_": 1536, "\ubc1c_": 1537, "\ube5b": 1538, "\ud558_": 1539, "\uc74c\uc744_": 1540, "\ud6a8\uacfc": 1541, "\uc815\ub3c4_": 1542, "\uc774\uc790_": 1543, "\uc548\uc5d0_": 1544, "\uc798": 1545, "\uc2a8": 1546, "\ub9b0\ub2e4": 1547, "\ub828": 1548, "\ubabb\ud55c_": 1549, "\uc2dc\uc2a4\ud15c": 1550, "\uc774\ub780_": 1551, "\ud68c\uc758": 1552, "\uc529_": 1553, "\ub85c\uc11c_": 1554, "\ubaa8_": 1555, "\uace4": 1556, "\uae30\uad00": 1557, "\ub4dc\ub97c_": 1558, "\ucd94\uc9c4": 1559, "\uc6c0\uc744_": 1560, "\uc6cc_": 1561, "\ud758": 1562, "SK": 1563, "\ucd9c\uc2dc": 1564, "\ub17c\ub780": 1565, "\uc0dd_": 1566, "\uc8fc\ubcc0": 1567, "\ub2e4\uac00_": 1568, "\uc774\uc640_": 1569, "2000": 1570, "\ub2c8\uae4c": 1571, "\ud544\uc694": 1572, "\uc791\ud488": 1573, "\uce5c\uad6c": 1574, "\uaddc\ubaa8": 1575, "\ubd81_": 1576, "\ub300\ucc45": 1577, "\uc0ac\uc2e4\uc744_": 1578, "\uc88b\uc544": 1579, "\uc548\ud0c0": 1580, "\uacf5\uc2dd_": 1581, "\uc9c0\uc9c0_": 1582, "\uc0ac\ub78c\uc774_": 1583, "\uc6b0\uc2b9": 1584, "\uac70\uc758_": 1585, "\uacc4\uc18d": 1586, "m_": 1587, "\ub9c8\uc9c0\ub9c9_": 1588, "\uc9c0\ub3c4": 1589, "\uc9d1\uc911": 1590, "\ub4ef": 1591, "\ub300\ud45c_": 1592, "\uc880_": 1593, "\uc790\ub4e4\uc740_": 1594, "\uac78_": 1595, "\uc8fc\ubbfc": 1596, "\uc911\uc5d0_": 1597, "\uc815\ubd80\uac00_": 1598, "\uc778\ud130\ubdf0": 1599, "\ub098\uc624": 1600, "\uc548\uc804": 1601, "\ud65c\uc57d": 1602, "\uc6d0\uc73c\ub85c_": 1603, "\ub300\uac00_": 1604, "\ub124\ud2f0\uc98c": 1605, "80": 1606, "\ubd80\ubaa8": 1607, "\uc9c4\uc740_": 1608, "\ubc29\ubb38": 1609, "\ubc16\uc5d0_": 1610, "\ud558\uaca0\ub2e4": 1611, "\uc0ac\ubb34": 1612, "\uafc8": 1613, "\ub418\uba74\uc11c_": 1614, "\ud574\uacb0": 1615, "\uc5f0\uacb0": 1616, "\uc55e\uc73c\ub85c_": 1617, "\ub6f0\uc5b4": 1618, "\uc120\ubc1c": 1619, "\uccb4_": 1620, "\ubcc4_": 1621, "\uc2a8_": 1622, "\ud638\ub294_": 1623, "2\uc6d4_": 1624, "\ucc28\ub97c_": 1625, "\ubcf5\uadc0": 1626, "\ud608": 1627, "\ud574\ub2f9_": 1628, "\ub300\ud1b5\ub839\uc774_": 1629, "\ub538": 1630, "\ubd80\uac00_": 1631, "\ud588\uc744_": 1632, "\uc810\uc774_": 1633, "\uc774\uc81c_": 1634, "\ucc98\uc74c_": 1635, "\uba54\uc774": 1636, "\uc788\uc9c0\ub9cc_": 1637, "\ubc1b\uc544_": 1638, "\uc815\ub3c4\ub85c_": 1639, "\uacfc\uc815\uc5d0\uc11c_": 1640, "\ub9ac\uc544_": 1641, "\ucd5c\uace0_": 1642, "\ubc14\uc774": 1643, "\uc804\ubb38": 1644, "\ube44\uad50": 1645, "\uc0dd\uc0b0": 1646, "\ub4ef_": 1647, "\uc81c\uc678": 1648, "\uc54a\uc744_": 1649, "\uceec": 1650, "\uc65c_": 1651, "\uc0c9_": 1652, "\uacfc\ud559": 1653, "\uba74\uc11c\ub3c4_": 1654, "\ubd80\ubd84": 1655, "\uc18c\ub97c_": 1656, "\uac15\uc870\ud588\ub2e4": 1657, "\ub974_": 1658, "\uc124\uba85": 1659, "\ub545": 1660, "\uc720\ub7fd": 1661, "\ud648\ub7f0": 1662, "\ubbf8\uad6d\uc758_": 1663, "\uc5b4\ub835": 1664, "\uc5f0\ud569": 1665, "\uc804\ub7b5": 1666, "\ub193\uace0_": 1667, "\uadf8\ub8f9": 1668, "\uc0ac\uc9c4\uc744_": 1669, "\uc124\uce58": 1670, "\uc788\ub3c4\ub85d_": 1671, "\ucc45\uc784": 1672, "\ub3c4\uc2dc": 1673, "\ud639": 1674, "\ucc98\uc74c": 1675, "\uc5b4\ub290_": 1676, "\uc758\uc6d0\uc740_": 1677, "\uad50_": 1678, "\ub300\uc751": 1679, "\ubbff": 1680, "\uc810\uc5d0\uc11c_": 1681, "\uaca8_": 1682, "\ucd95\uad6c_": 1683, "\ud30c_": 1684, "\ube45": 1685, "\ub454_": 1686, "\uc790\uccb4": 1687, "\ub6f0": 1688, "\uc774\ud6c4": 1689, "\uc601\ud5a5\uc744_": 1690, "\uc911\uc774\ub2e4": 1691, "\uac00\uc9c0\uace0_": 1692, "\ub4e4\uc5d0_": 1693, "\ucca0_": 1694, "\uadf8\ub798\uc11c_": 1695, "\ud654\ub97c_": 1696, "\uc815\ubd80\ub294_": 1697, "\ubc1c\uc5b8": 1698, "\uc26c": 1699, "\uc7ac\ud310": 1700, "\uc120\ubc1c_": 1701, "/_": 1702, "\uc804\uccb4_": 1703, "\ud39c": 1704, "\uc5b8\uae09": 1705, "\ubabb_": 1706, "\uadf8\ub798": 1707, "\uc9c0\ucf1c": 1708, "\uc815\ub3c4": 1709, "\ub9ac\uc758_": 1710, "\ub9cc\uc6d0_": 1711, "\ubc29\uc1a1\ub41c_": 1712, "\uc774\ub7ec\ud55c_": 1713, "\uc704\ub85c_": 1714, "\ubd80\uc758_": 1715, "\ucd0c": 1716, "\ud558\uae30\ub85c_": 1717, "\ub3c4\uc758_": 1718, "\ucea0": 1719, "\uc9c0\uae08": 1720, "\uc218\ube44": 1721, "\uc73c\ub098": 1722, "\uc787": 1723, "500": 1724, "\ub0b4\ub824": 1725, "\uc774\ubbf8": 1726, "\ub3c4\ub294_": 1727, "\ub8e8_": 1728, "\uae30\ub2e4": 1729, "\ub2c8\uae4c_": 1730, "\ucc3e\uc544": 1731, "\ubb18": 1732, "4\ub144_": 1733, "\ube7c": 1734, "\ubc1d": 1735, "\uc131\uc7a5": 1736, "\uac81": 1737, "\uad6d\ub0b4": 1738, "\ucf54_": 1739, "\ubc1b\uc744_": 1740, "\uadf8\uac00_": 1741, "\uc5c5_": 1742, "y_": 1743, "\uc694\uccad": 1744, "\uac00\uc9c4_": 1745, "\uac10\ub3c5\uc774_": 1746, "\ub300\ud45c\ub294_": 1747, "\uad00\uad11": 1748, "\ucc38\uac00": 1749, "\ud2f0_": 1750, "\uac04\uc758_": 1751, "\ub97c": 1752, "\uac15\ud654": 1753, "\ucc28\ub840_": 1754, "\uc600\ub358_": 1755, "\ud1a0_": 1756, "KB": 1757, "\uc544\uc774\ud3f0": 1758, "35": 1759, "\uc2b9_": 1760, "\ub2a6": 1761, "\ubd80\uc5d0_": 1762, "\uac1c\uc6d4_": 1763, "\uafb8": 1764, "\ub610": 1765, "\uc0b0\uc5c5": 1766, "\uc788\uac8c_": 1767, "\ub2e4\uace0_": 1768, "\uad00\uc2ec\uc744_": 1769, "\uc57c\uad6c": 1770, "\uc5f0\uc18d_": 1771, "\ub958_": 1772, "\uad70\uc758_": 1773, "\uce35_": 1774, "\uaf3d": 1775, "\uc2e4\uc81c_": 1776, "\ud2b8\ub294_": 1777, "\ud734\ub300": 1778, "\ubc14\ub78c": 1779, "\ubca0\uc774": 1780, "\uc81c\ub300\ub85c_": 1781, "\uc774\ub4e4\uc740_": 1782, "\ud559_": 1783, "\ub300\ud1b5\ub839\uc758_": 1784, "\ubd81\ud55c_": 1785, "\uc55e\ub450\uace0_": 1786, "\ubcf4\ub2c8_": 1787, "\ub150": 1788, "\uae30\uac04": 1789, "\ubc18\uba74_": 1790, "\ud658_": 1791, "\uc801\uc744_": 1792, "\ubbfc_": 1793, "\uc6e0\ub2e4": 1794, "\ub9ac\uc5d0_": 1795, "\uc704\ud5d8": 1796, "\uc0c1\ub300\ub85c_": 1797, "\uc785\uc7a5": 1798, "\ubc94\uc8c4": 1799, "197": 1800, "\ub300\uc2e0_": 1801, "\uadf8\ub3d9\uc548_": 1802, "\uc11c\ub85c_": 1803, "z": 1804, "\uc2a4\ud06c": 1805, "\uae30\ub85d\ud588\ub2e4": 1806, "\uc6d4\ub4dc\ucef5_": 1807, "\uc140": 1808, "\ub2e4\ub974": 1809, "\ub118\uc5b4": 1810, "\ub300\ud574\uc11c\ub294_": 1811, "\uad74": 1812, "SBS_": 1813, "\uc77c\uc73c": 1814, "\uc0ac\uc9c4_": 1815, "\ubc29\ubc95": 1816, "\uc168": 1817, "\uacbd\ucc30\uc740_": 1818, "\ub530\ub978_": 1819, "\ucd5c\uace0\uc758_": 1820, "\ud551": 1821, "\uc6c0\uc9c1": 1822, "\ud0a8": 1823, "\ub098\ud0c0\ub0ac\ub2e4": 1824, "\ud310\ub2e8": 1825, "\uc791_": 1826, "\uc911\uc694\ud55c_": 1827, "\ubcf4\ub2e4\ub294_": 1828, "TV_": 1829, "\ud65c\uc6a9": 1830, "\uc801\uc740_": 1831, "\ub7fc": 1832, "\uaf43": 1833, "\uc790\ub9ac\ub97c_": 1834, "\uc18c\uac1c": 1835, "\ud0d1": 1836, "\uc989": 1837, "\uc720_": 1838, "\uc815\uc774_": 1839, "\uc6b0\ub294_": 1840, "\uc0c1\uc774_": 1841, "al": 1842, "\ud2bc": 1843, "\uc5ec\uc131_": 1844, "\uc788\uc73c\uba70": 1845, "\uc54c\ub824": 1846, "\ub294\uc9c0_": 1847, "\ub809": 1848, "\ucc9c_": 1849, "\uacaa": 1850, "\ubaa9\uc18c": 1851, "\uad6d\uc740_": 1852, "\ud6c4\ubc18_": 1853, "\uadf8\ub807\uac8c_": 1854, "\uce21_": 1855, "\ub465": 1856, "\uae30\uc874_": 1857, "\uc62c\ub9bc\ud53d_": 1858, "\ud558\uc774": 1859, "\uc784\uc744_": 1860, "\uc704\ub294_": 1861, "\ud558\ub294\ub370_": 1862, "\uc5ed\ud560\uc744_": 1863, "\uad6c\ub97c_": 1864, "ic": 1865, "\ub4dc\ub77c\ub9c8": 1866, "\uc54c\uace0_": 1867, "\uc911\uc694": 1868, "\uac83\uc774\ub77c\uace0_": 1869, "\ub370\ubdd4": 1870, "\uc5ec\uc804\ud788_": 1871, "\uc2a4\ud1a0": 1872, "\uac00\uc785": 1873, "\uc601\uc5b4": 1874, "\uc790\uc2e0\uc774_": 1875, "\uaed8": 1876, "\ucf13": 1877, "\uc2dc\ud5d8": 1878, "\ud658\uacbd": 1879, "\uc870\uc9c1": 1880, "\uccad_": 1881, "\uc5d0\uc11c\uc758_": 1882, "\uc911\uc2ec": 1883, "\uc548\uc815": 1884, "\uc2dc\uc7a5": 1885, "\uc788\uace0_": 1886, "1\uc77c_": 1887, "1\ucc9c": 1888, "\uc1c4": 1889, "2_": 1890, "\uae30\ub2a5": 1891, "\ubcf4\ud638": 1892, "\ub79c": 1893, "\uc783": 1894, "\ud558\uc790_": 1895, "D_": 1896, "\uac1c\ub97c_": 1897, "\ub300\ud55c\ubbfc\uad6d_": 1898, "\uc67c": 1899, "\uc2a4\uc640_": 1900, "\uc5ec\uc790": 1901, "\uc9dc": 1902, "\ubcf4\ub3c4\ud588\ub2e4": 1903, "\uc9d0": 1904, "\uac1c\uc6d4": 1905, "\ubcc0\ud638": 1906, "\uad6d\ubc29": 1907, "\uc785\uc7a5\uc744_": 1908, "\ub300\ub294_": 1909, "\ub124_": 1910, "\ubabb\ud558\uace0_": 1911, "\ubb3b": 1912, "\uc218\uc0ac": 1913, "\uc774\uae30_": 1914, "\ud3ec_": 1915, "\uc815\uc0c1": 1916, "\ubc24": 1917, "\uacbd\uae30\uc5d0_": 1918, "\uc804\ud600_": 1919, "\ub4e3": 1920, "KBS_": 1921, "\ubb38\uc81c\ub97c_": 1922, "\uc815\ubd80\uc758_": 1923, "\uad50\ud1b5": 1924, "\ubd80\uc0b0": 1925, "\uc73c\ub85c\ubd80\ud130_": 1926, "\ub178\ub798": 1927, "\uc774\ud574": 1928, "\uad6d\uc815": 1929, "\ub0b4\ub144_": 1930, "\uc2f6\ub2e4": 1931, "\ub514_": 1932, "\ub54c\ub294_": 1933, "\uace0\ub4f1": 1934, "\uac74\uc124": 1935, "\uc624\ud788\ub824_": 1936, "\ucef4": 1937, "8\ub144_": 1938, "\uc790\uc5f0": 1939, "\ub274\uc695": 1940, "\ubd80\ub974": 1941, "\ub2f9\uc740_": 1942, "\uc564": 1943, "\uc62c\ub9bc\ud53d": 1944, "\ubba4": 1945, "\uc804\ud22c": 1946, "\uba85\uc740_": 1947, "\ub374": 1948, "\ud615\ud0dc": 1949, "\uc62e": 1950, "\ubabd": 1951, "\ub7c9_": 1952, "90": 1953, "\uc0c1\ud669\uc5d0\uc11c_": 1954, "\uc788\uae30_": 1955, "=_": 1956, "31": 1957, "\uc8fc\uc7a5\ud588\ub2e4": 1958, "\uae30\ud68d": 1959, "\ud65c\ub3d9\uc744_": 1960, "\ube59": 1961, "\uae30\uac04_": 1962, "\ubaa8\uc2b5\uc774_": 1963, "\uae4a": 1964, "\ubc1b\uc558": 1965, "\uc544\ub294_": 1966, "\ub9cc\ub4e4": 1967, "\uc77c\uae4c\uc9c0_": 1968, "\uc13c\ud130": 1969, "\ubb34\uc5c7": 1970, "\ud558\uac70\ub098_": 1971, "\uc544\ubb34": 1972, "\ub9ce\ub2e4": 1973, "km": 1974, "\uc774\ub984\uc744_": 1975, "\uac14": 1976, "\ub9bf": 1977, "\ud06c\ub85c": 1978, "\uc0c1\ud488": 1979, "\uc2a4\ud2b8_": 1980, "\ub2f9\uc758_": 1981, "\ubcf4\ub3c4": 1982, "\ud074\ub7fd": 1983, "\uc54c_": 1984, "\uaca0\ub2e4\ub294_": 1985, "\ub82c": 1986, "\uacb0\uc2b9": 1987, "\uc544\ub974": 1988, "\uadfc_": 1989, "\ub354\ub77c\ub3c4_": 1990, "\uc778\uc0ac": 1991, "\ucd08\ub4f1": 1992, "\uac00\ub97c_": 1993, "\ucd9c\uc804": 1994, "\ub044": 1995, "2010\ub144_": 1996, "\ub098\uac00": 1997, "\ub098\uc774": 1998, "\uacf5\ud654": 1999, "\uc810\uc73c\ub85c_": 2000, "\uc120\uc5b8": 2001, "\ubc29\ud5a5": 2002, "\uc2dc\uc5d0_": 2003, "\uc870\uc0ac_": 2004, "\ub1cc": 2005, "\ud604\uc9c0\uc2dc\uac04": 2006, "\uac00\uaca9": 2007, "\uc0ac\uace0_": 2008, "\uc2dc\uac04\uc774_": 2009, "\ud558\uba70": 2010, "\ubaac": 2011, "\uc6c5": 2012, "\uc0ac\uc2e4_": 2013, "\uacf5\ub3d9": 2014, "\ub3c8\uc744_": 2015, "\uc138\uac00_": 2016, "\ub9db": 2017, "\ub3d9\uc2dc\uc5d0_": 2018, "\uce78": 2019, "\uc774\uac00_": 2020, "\ud540": 2021, "\uc9c0\uc18d": 2022, "\uc62c\ub790\ub2e4": 2023, "\ud588\uc73c\ub098_": 2024, "\ub354\ub77c": 2025, "\uc220\uc744_": 2026, "\uc815\ud55c_": 2027, "\uc704\uce58": 2028, "\uc9f8_": 2029, "\uacc4\ub97c_": 2030, "\uc2dc\uc791\ud588\ub2e4": 2031, "\uaebc": 2032, "\uc2dc\uc758_": 2033, "\ub79c\ub4dc": 2034, "\uc0ac\ub78c\uc740_": 2035, "\uc18c\uc1a1": 2036, "\uc548\uc744_": 2037, "\uae40\uc5f0": 2038, "\ub7f0_": 2039, "\uba58": 2040, "\ud604\uc2e4": 2041, "\uac74\uac15": 2042, "\uc774\uc801": 2043, "\ub2e8\ub3c5": 2044, "\ube44\ub97c_": 2045, "\uc778\ucc9c": 2046, "\uac83\uc5d0_": 2047, "\ub04a": 2048, "\ub2dd": 2049, "\ud790": 2050, "\uc791\uc740_": 2051, "th": 2052, "\ubbf8\ub514": 2053, "\uad00\ud55c_": 2054, "\uc778\ud130\ub137_": 2055, "\ub2e4\ub2c8": 2056, "\uacf5\ubb34": 2057, "\ud589\uc744_": 2058, "el": 2059, "\uc0c1\uc758_": 2060, "\uacb8": 2061, "\uc92c\ub2e4": 2062, "\uac8c\uc784_": 2063, "\uc950": 2064, "\uc77c\uc740_": 2065, "\uadf8\ub300\ub85c_": 2066, "\ub098\uc628_": 2067, "\ubb34_": 2068, "\ub048": 2069, "\uac01\uc885_": 2070, "\uc2e4\ud328": 2071, "\uc77c\ubcf8\uc758_": 2072, "\ud55c\uad6d\uc2dc\uac04": 2073, "\uc6d4\uc5d0_": 2074, "7\ub144_": 2075, "\uc9c0\uc801": 2076, "\ubcbd": 2077, "\uaca9_": 2078, "\uc2ec\uc744_": 2079, "\ube44\uc6a9": 2080, "\uc637": 2081, "\uc758\ub97c_": 2082, "t_": 2083, "\uc2e0\uccad": 2084, "\uae00\uc744_": 2085, "2008\ub144_": 2086, "\uc81c\ub294_": 2087, "\uc804\uccb4": 2088, "\ub300\ud55c": 2089, "\ubfd0_": 2090, "\ud488_": 2091, "\ud2f4": 2092, "\uc9c4\uc774_": 2093, "\uba85\uc73c\ub85c_": 2094, "\uc774\uc2b9": 2095, "\uc774\uc9c0\ub9cc_": 2096, "300": 2097, "\uc8fc\ubaa9": 2098, "196": 2099, "\ub300\ud68c_": 2100, "\uc2a4\ud130": 2101, "\uac1c\uc778": 2102, "\uc5f0\uae30": 2103, "\uc288\ud37c": 2104, "\uce60_": 2105, "\ubbf8\ub798": 2106, "\uc6d4\ub4dc\ucef5": 2107, "\uccab": 2108, "\ub9cc\ub4e4\uc5b4": 2109, "\ub098\uc654\ub2e4": 2110, "\ucc98\uc74c\uc73c\ub85c_": 2111, "\ub9cc\uc758_": 2112, "\ub2f9\ud55c_": 2113, "3\uc77c_": 2114, "\ub2e4\ub9cc_": 2115, "\uae30\uc5c5_": 2116, "\uc788\uace0": 2117, "\ud14c\uc774": 2118, "\uac83\uc774\ub77c\ub294_": 2119, "ion": 2120, "\uc820": 2121, "\ud610\uc758\ub85c_": 2122, "\uc559": 2123, "\uace1_": 2124, "\ub0b4\ub294_": 2125, "\ub098\uc640_": 2126, "\uc778\ud130\ub137": 2127, "\ub0a8\uc790": 2128, "\uc758\uacac": 2129, "\uc9c4\uc744_": 2130, "\uc544\ud30c": 2131, "\ud3fc": 2132, "\ubf51": 2133, "\uacbd\uc601": 2134, "\uad6d\ud68c_": 2135, "\uacfc\ub294_": 2136, "6\ub144_": 2137, "\uc27d\uac8c_": 2138, "\ub300\ud55c\ubbfc\uad6d\uc758_": 2139, "\ud55c\ud3b8": 2140, "\uc708": 2141, "\uc601\uc5c5": 2142, "\uc778\uc0c1": 2143, "\uc804\ubb38\uac00": 2144, "\uc2e4\uc2dc": 2145, "\uc54a\uc544_": 2146, "\uc6b1": 2147, "\ub204\uad6c": 2148, "\ub2e4\uc74c\uacfc_": 2149, "\uc601\ud5a5": 2150, "FA": 2151, "\uc774\ub4e4_": 2152, "\uc9c0\ub85c_": 2153, "\uc5ed\uc744_": 2154, "\uc2dc\uac04\uc744_": 2155, "\uc0ac\ub78c\ub4e4\uc774_": 2156, "o_": 2157, "\uae30\ubcf8": 2158, "S_": 2159, "\uc9c0\uc801\ud588\ub2e4": 2160, "\ub0b4\uace0_": 2161, "\ud68c\ub97c_": 2162, "\uc528\ub97c_": 2163, "\ub2f9\uc774_": 2164, "\uc5d0\uc774": 2165, "\ud1b1": 2166, "\ud504\ub9ac": 2167, "\ub9cc\uc744_": 2168, "\uc774\uc720\ub85c_": 2169, "\uc18c\ub140": 2170, "\ub514\uc790": 2171, "2012\ub144_": 2172, "\uc788\uc73c\uba70_": 2173, "\uc804\ud654": 2174, "\uadf8\ub140": 2175, "it": 2176, "\uc720\uba85": 2177, "\uc0ac\ub840": 2178, "\ud1b5\ud569": 2179, "\ud68c\uac00_": 2180, "\ud558\ub3c4\ub85d_": 2181, "\uc678\uad50": 2182, "\uc0c1\ub2f9": 2183, "\ucd94\uac00_": 2184, "2011\ub144_": 2185, "10\uc77c_": 2186, "\uc0ac\uc2e4\uc0c1_": 2187, "\u25b6_": 2188, "\uc774\uace0": 2189, "\uc704\uac00_": 2190, "\uacf5\ud56d": 2191, "\ub9cc\ub4e0_": 2192, "\ub2ec\ub9ac_": 2193, "\uc720\uc9c0": 2194, "\ubc29\uce68": 2195, "\uc218\ubc16\uc5d0_": 2196, "\ub3c4\uc785": 2197, "\uc728\uc774_": 2198, "\uba40": 2199, "2009\ub144_": 2200, "\uc2a4\ud398": 2201, "\ud68c\uc758_": 2202, "\uc7a5\uc73c\ub85c_": 2203, "\uba54\uc2dc": 2204, "5\uc77c_": 2205, "\ud754": 2206, "\uac1c\ud601": 2207, "\ub9e8\uc720": 2208, "2014\ub144_": 2209, "\ub0c8": 2210, "\uc5b4\ub97c_": 2211, "\ubd80\uc0c1": 2212, "\uc2e0\uace0": 2213, "\uae30\ub150": 2214, "\ud638\ud154": 2215, "\uac10\uc0ac": 2216, "\ucc0c": 2217, "\ube44\ub09c": 2218, "\ud0dc\uc5b4": 2219, "\ud558\ub8e8_": 2220, "15\uc77c_": 2221, "\ubc1d\ud600": 2222, "32": 2223, "\ub208\uae38\uc744_": 2224, "\uad70\uc740_": 2225, "\uc704\uce58\ud55c_": 2226, "\ucd98": 2227, "\ubc18\uc751": 2228, "\ub300\uc911": 2229, "\ub9cc\ud55c_": 2230, "\uad6c\ub294_": 2231, "\uace0\ub3c4_": 2232, "\uc9c0\uc9c0": 2233, "\ub0bc_": 2234, "36": 2235, "\uc2e4\uc81c\ub85c_": 2236, "2\uc77c_": 2237, "\uac00\uc9c0": 2238, "\uac80\ud1a0": 2239, "am": 2240, "\ubd84\uc744_": 2241, "\uac10_": 2242, "\uc8fc\uace0_": 2243, "\uc774\uc0c1\uc758_": 2244, "\uc4f8": 2245, "\uc789\uae00": 2246, "\uac00\uc218_": 2247, "\uac15\ud55c_": 2248, "\uaf2c": 2249, "\ucd9c_": 2250, "\uc62c\ud574": 2251, "\uc624\ub978": 2252, "\uc5b4\uba38\ub2c8": 2253, "\uac10\ub3c5\uc758_": 2254, "\uc0ac\ud0dc": 2255, "\uc5b4\ub9b0": 2256, "\ud589\uc815": 2257, "\ud638\ub97c_": 2258, "\ubcd1_": 2259, "\ub960_": 2260, "45": 2261, "\ubc1b\uc544": 2262, "\uc131\uc758_": 2263, "\ub7f4": 2264, "\ub4f1\ub85d": 2265, "\ubc8c\uc5b4": 2266, "\ub85d_": 2267, "\ub984_": 2268, "\ubc25": 2269, "\uc18c\ub144": 2270, "38": 2271, "\uc608\ub2a5": 2272, "\uae40\uc815": 2273, "\uc81c\ub85c_": 2274, "\ub2e8\uc744_": 2275, "\uc790\uc640_": 2276, "\ub300\uc0c1\uc73c\ub85c_": 2277, "\ud569\uc758": 2278, "\uc138\uc694": 2279, "\ud134_": 2280, "\uc218\uc785": 2281, "\uc5d0\uac8c\ub294_": 2282, "\uc624\ub298": 2283, "\ub4dc\uc758_": 2284, "\uc190\ud765\ubbfc": 2285, "\ubd24\ub2e4": 2286, "\ub7c9\uc774_": 2287, "5\ub144_": 2288, "\ud558\ub77d": 2289, "\uc549": 2290, "\ube44\uac00_": 2291, "\uc9c0\ud558": 2292, "\uc5c8\ub358_": 2293, "\uae00_": 2294, "\uccad\uc640\ub300_": 2295, "\uac1c\ucd5c": 2296, "\ud544\uc694\ud55c_": 2297, "\ucabd\uc73c\ub85c_": 2298, "\ud568\uc744_": 2299, "2007\ub144_": 2300, "\uce60": 2301, "\uc6c0\uc774_": 2302, "\uc120\uc758_": 2303, "\uacf5\uc2dd": 2304, "\ubcf4\uc774\ub294_": 2305, "\uc9c0\ub098": 2306, "\ub178\ub825": 2307, "\uc744\uae4c": 2308, "\ubc18\ub300": 2309, "\ud655\ubcf4": 2310, "\uae40\ud0dc": 2311, "\ub9c8\ub2e4_": 2312, "4\uc77c_": 2313, "\ucc98\ub9ac": 2314, "\ub300\ud45c\ud300_": 2315, "8\uc77c_": 2316, "\ud22c\uc785": 2317, "\uc73c\ub85c\ub3c4_": 2318, "\uc810\uc740_": 2319, "7\uc77c_": 2320, "\ud55c\uad6d\uc758_": 2321, "\uc0c8\ub204\ub9ac": 2322, "\uc9c0\uba74\uc11c_": 2323, "\ubc45": 2324, "\uace0\ubbfc": 2325, "\uc218\uc0c1": 2326, "\uc9c0\uae09": 2327, "\ud588\uc9c0\ub9cc": 2328, "\ubc18\uc751\uc744_": 2329, "\uc57c\uad6c_": 2330, "\uc9c1\uc6d0": 2331, "\uc5ec\ub860": 2332, "\ud138": 2333, "20\uc77c_": 2334, "\ub17c\ub780\uc774_": 2335, "FA_": 2336, "\ud0c4_": 2337, "\ub300\uacb0": 2338, "\uc5f0\ubd09": 2339, "\uc2dc\uac01": 2340, "\ubaa9\ud45c": 2341, "\uc18c\ud654": 2342, "\uc0ac\uc5d0_": 2343, "\uc2a4\ub9c8\ud2b8\ud3f0_": 2344, "\ub9e4_": 2345, "\uc804\ub2ec": 2346, "\uc804\ub9dd\uc774\ub2e4": 2347, "\ud30c\uc545": 2348, "\ub7c9\uc744_": 2349, "\ud2b8\uac00_": 2350, "\ud50c\ub808\uc774": 2351, "\ubc16": 2352, "\uccd0_": 2353, "\uc601\uc740_": 2354, "\ubcc0\ud654": 2355, "12\uc77c_": 2356, "\uc5c6\ub2e4\ub294_": 2357, "\ub958\ud604": 2358, "\uc2a4\ud0c0_": 2359, "\uc81c\uc2dc": 2360, "\ud5e8": 2361, "\ub77c\ub3c4_": 2362, "\uc120\uc815": 2363, "\uc0b4\uc544": 2364, "\ud0d0": 2365, "9\uc77c_": 2366, "\ub0b4\ub193": 2367, "Q": 2368, "\uacf5\uae09": 2369, "\uc218\ub3c4": 2370, "\ubaa8\ub974": 2371, "\uad6d\uc774_": 2372, "\ubbf8\uc0ac": 2373, "\uc30d": 2374, "\ub300\ucd9c": 2375, "\uc218\uc775": 2376, "\uc918": 2377, "\ucd94\uc815": 2378, "\uc774\uc775": 2379, "\uc774\uc5c8\ub358_": 2380, "11\uc77c_": 2381, "\ubcf4\ub0b4": 2382, "\ub124\uc774": 2383, "\ud655\uc815": 2384, "2013\ub144_": 2385, "\uc624\ub298_": 2386, "\uc2b9\ub9ac": 2387, "KT": 2388, "6\uc77c_": 2389, "\ub959": 2390, "\ub9c8\uc74c\uc744_": 2391, "\uc778\ub370": 2392, "^": 2393, "\uc911\uc2ec\uc73c\ub85c_": 2394, "\uc2a4\ub9c8\ud2b8\ud3f0": 2395, "\uc778\uc9c0_": 2396, "\ub0c9": 2397, "\uad6c\uc18d": 2398, "\uc5f0\ub9f9": 2399, "\ucca8": 2400, "25\uc77c_": 2401, "\uae40\uc131": 2402, "\ud761": 2403, "\uad6c\uccb4": 2404, "1\ub9cc": 2405, "\uacfc\uac70_": 2406, "\ud558\uc790": 2407, "\uc18d\uc5d0_": 2408, "\uc81c\ud55c": 2409, "27\uc77c_": 2410, "g_": 2411, "\uafbc": 2412, "\ub110_": 2413, "\ud300\uc758_": 2414, "\uc0ac\uacfc": 2415, "\ubd80\ud130": 2416, "\u2026_": 2417, "\ud574\uc678": 2418, "\uc2b9\uc744_": 2419, "\uba38\ub2c8": 2420, "\ud3c9\uade0": 2421, "\uc778\uc73c\ub85c_": 2422, "\ud2b8\uc758_": 2423, "\ud0b9": 2424, "\ub3c5\uc77c_": 2425, "\ub2e4\uc774": 2426, "re": 2427, "\uccbc": 2428, "\uadfc\ub85c": 2429, "\ud604\uc9c0_": 2430, "\ud305_": 2431, "16\uc77c_": 2432, "\ub300\ud559_": 2433, "\ub871": 2434, "33": 2435, "\uc2dc\ub3c4": 2436, "\uc368_": 2437, "\ud76c\ub9dd": 2438, "17\uc77c_": 2439, "\ubcf4\uc774": 2440, "28\uc77c_": 2441, "14\uc77c_": 2442, "\ud150": 2443, "\ubd84\uc57c": 2444, "\ud30c\uc774": 2445, "\ud589\ub3d9": 2446, "\uc2dc\ud589": 2447, "\ubc15\uadfc\ud61c_": 2448, "\uad6c\uac00_": 2449, "\uc5ec\ub7ec": 2450, "\uc218\ub85c_": 2451, "\ub77c\uc6b4": 2452, "\ud655\ub300": 2453, "\ubc1b\uc544\ub4e4": 2454, "30\uc77c_": 2455, "\ub808_": 2456, "\ubcf4\uc720": 2457, "\uc7a5\uad00": 2458, "22\uc77c_": 2459, "\uacf5\uc744_": 2460, "\ud589\ubcf5": 2461, "\ub9d0\uc500": 2462, "\uc62c\ub838\ub2e4": 2463, "ch": 2464, "\ub192\uc544": 2465, "\uc0ac\ub77c": 2466, "\uc2dc\ub9ac\uc988": 2467, "\uc2e0\ubb38": 2468, "\ud655\uc2e4": 2469, "\ube0c\ub9ac": 2470, "\ub9bd_": 2471, "\ubc34": 2472, "\uc624\ub978_": 2473, "\ub978": 2474, "2\ub144": 2475, "\uc5b4\ub514": 2476, "37": 2477, "\uc0bc\uc131_": 2478, "\uc624\ub974": 2479, "\uc6b0\ub9ac\uac00_": 2480, "21\uc77c_": 2481, "\ucc28\ub840": 2482, "\uac00\uace0_": 2483, "\uac00\uc2b4": 2484, "\ud154": 2485, "\ubd84\uc774_": 2486, "\uc218\ub85d_": 2487, "\ub85c\uc774": 2488, "\ud558\ub8e8": 2489, "\ucce4": 2490, "\ud588\uc73c\uba70": 2491, "\ud558\ub2e4\ub294_": 2492, "\uac10\ub3c5_": 2493, "18\uc77c_": 2494, "\uc728\uc740_": 2495, "\ubd24": 2496, "\uacc4\ud68d\uc774\ub2e4": 2497, "\ud1a4": 2498, "\uc788\uc5c8\ub358_": 2499, "\uc2dc\ud2f0": 2500, "\ud78c_": 2501, "\uc6b0\ub9ac\ub294_": 2502, "19\uc77c_": 2503, "26\uc77c_": 2504, "\uc2a4\ub7ec\uc6b4_": 2505, "\uae30\uc5b5": 2506, "23\uc77c_": 2507, "\uc2a4\ucf54": 2508, "13\uc77c_": 2509, "\uc815\uc2e0": 2510, "\ubcf8\uaca9": 2511, "\uad00\ub828\ud574_": 2512, "24\uc77c_": 2513, "\uc2e0\uc744_": 2514, "\ubfd0\ub9cc_": 2515, "\ud638\uac00_": 2516, "\uc2dc\ucf30\ub2e4": 2517, "\ub0a8\ud3b8": 2518, "\ub113": 2519, "\ub9cc\uc774_": 2520, "\uc804\uc790": 2521, "\uc778\ubb3c": 2522, "\uc791\uc5c5": 2523, "\uac15\ub0a8": 2524, "\ubc1c\uc804": 2525, "\uc11c\uc758_": 2526, "\uc601\uc0c1": 2527, "ou": 2528, "\uc7a5\uba74": 2529, "\uc791\uc6a9": 2530, "\uc870\uae08_": 2531, "\ub864": 2532, "\uc0c1\uc5d0_": 2533, "\ub125": 2534, "\uc5ec\uae30": 2535, "\ud588\uc73c\uba70_": 2536, "\ub4e4\uc5c8\ub2e4": 2537, "\uc5b5\uc6d0_": 2538, "\ub098\ub77c_": 2539, "\ub2d0": 2540, "\ud3f0_": 2541, "\ub9c8\ucc2c": 2542, "\ub0a8\uc740_": 2543, "\uc5ec\uc790_": 2544, "\ud53c_": 2545, "\ud50c\ub7ec": 2546, "\ubcf4\uc774\uace0_": 2547, "\uac10\uc18c": 2548, "\ub17c\uc758": 2549, "\ud68c\ubcf5": 2550, "\uc774\ub04c": 2551, "\ub790": 2552, "\uace8_": 2553, "1\ub144": 2554, "\uaed8_": 2555, "\ud574\uc8fc": 2556, "\uc73c\ub85c\uc11c_": 2557, "\ud5c8\uc6a9": 2558, "\uadf8\ub97c_": 2559, "\uc544\ub0b4": 2560, "\uac10\uc774_": 2561, "\uc124\ub9bd": 2562, "\uc7a5\uacfc_": 2563, "\ucc28\uac00_": 2564, "\uc18c\uc18d_": 2565, "\uc131\uacfc_": 2566, "\uc2a4\uc5d0_": 2567, "\uc601\uc785": 2568, "\uc544\ub2c8\ub0d0": 2569, "\ubbfc\uc8fc\ub2f9_": 2570, "\ub514\uc624_": 2571, "\uc870\uc0ac\ub97c_": 2572, "\ub300\ube44_": 2573, "\ud29c": 2574, "\uc678\uad6d": 2575, "\uccad\uc640": 2576, "\ubc15\uc8fc": 2577, "\uc608_": 2578, "\ud300\uc774_": 2579, "\uba54\uc774\uc800": 2580, "il": 2581, "\uac70\ubd80": 2582, "\uc9f8": 2583, "\ud504\ub791\uc2a4_": 2584, "\uc544\uc26c": 2585, "\ubcc4\ub85c_": 2586, "\uc911\ub2e8": 2587, "\uaddc_": 2588, "\ucc98_": 2589, "\uc774\uc57c\uae30\ub97c_": 2590, "N_": 2591, "1000": 2592, "\uc6d4\ubd80\ud130_": 2593, "\ud55c\ud654": 2594, "\uae40\ud604\uc815": 2595, "\uce58\uac00_": 2596, "\uc900\ub2e4": 2597, "\ub85c\ub97c_": 2598, "\uc804\uad6d_": 2599, "\ub0b4\uc6a9\uc744_": 2600, "\uce59": 2601, "\uc2ec\uac01": 2602, "000": 2603, "\ub4b7": 2604, "\ub7b5": 2605, "\uc2a4\ud53c": 2606, "\ub824\uace0_": 2607, "29\uc77c_": 2608, "\ub4f1\uc740_": 2609, "\ub098\uc11c": 2610, "\uac00\uac00_": 2611, "\uc131\uc5d0_": 2612, "\uad00\uc2ec\uc774_": 2613, "\uacc4\uc57d\uc744_": 2614, "\ud1b5\ud654": 2615, "\uc5c5\uacc4": 2616, "\uc2e4\ud5d8": 2617, "\uc544\uc694": 2618, "\uc368": 2619, "\ub300\ubd80\ubd84_": 2620, "\ucda4": 2621, "\ud574\ub2f9": 2622, "\ud798\uc744_": 2623, "34": 2624, "\uc801\uadf9": 2625, "\ub05d\uc5d0_": 2626, "\ub178\ud2b8": 2627, "\ub300\uc5d0\uc11c_": 2628, "\ud558\ub2e4_": 2629, "\uc774\ub974": 2630, "\uc0c1\ud669\uc744_": 2631, "\uc678_": 2632, "\uc790\uc778_": 2633, "\ud5d8": 2634, "\ub800\ub2e4": 2635, "\ub144\ubd80\ud130_": 2636, "\uc778\ud55c_": 2637, "\ucd9c\uc2e0": 2638, "\uc790\uc5d0_": 2639, "\uc2dc\ub97c_": 2640, "\uc120\uc774_": 2641, "\ud2b8\uc704": 2642, "\uc2fc_": 2643, "\uc815\uaddc": 2644, "\ubb38\uc81c\ub294_": 2645, "\ud588\ub294\ub370_": 2646, "\uc0ac\uc640_": 2647, "\ud504\ub85c\uadf8\ub7a8_": 2648, "\uc778\ub370_": 2649, "\uc0ad": 2650, "\uc606": 2651, "\uacf5\uac1c\ud588\ub2e4": 2652, "2015\ub144_": 2653, "\uce21\uc774_": 2654, "2006\ub144_": 2655, "\ub9fa": 2656, "\uc81c\ucd9c": 2657, "\ud22c\uc218": 2658, "\uc720\ub7fd_": 2659, "\uc740\ud589_": 2660, "\ub4c0": 2661, "\uc8fc\ub3c4": 2662, "\uc5d0\ub9cc_": 2663, "\ub7ec\uc2dc\uc544_": 2664, "\uac15\uc870": 2665, "is": 2666, "\uc5b4\ub824\uc6b4_": 2667, "\uc740\ud1f4": 2668, "\uc120\uc218\uac00_": 2669, "\u3008": 2670, "\uc704\ud611": 2671, "\uc9c4\uc758_": 2672, "\uc575\ucee4": 2673, "\uae30\uc790\ud68c\uacac": 2674, "\uc131\ud3ed": 2675, "\ub530\ub77c\uc11c_": 2676, "\u3009": 2677, "\uacbd\ucc30_": 2678, "\ud558\uc5ec": 2679, "\ube5a": 2680, "\ud22c\ud45c": 2681, "\ud68c\uc0ac_": 2682, "et": 2683, "le": 2684, "\ub9ac\uc9c0_": 2685, "\uc758\uc6d0_": 2686, "\uc0ac\ub85c_": 2687, "\uac00\uc838": 2688, "\uc2a4\uc2a4\ub85c_": 2689, "C_": 2690, "\uc544\uc2dc\uc544": 2691, "\ud5ec": 2692, "\uc139": 2693, "\uae30\ud68c\ub97c_": 2694, "\ub9b4": 2695, "\ub09c\ub2e4": 2696, "\ub144\ub300_": 2697, "\uccb4\uc721": 2698, "\ubc1d\ud788": 2699, "\uc774\uba85\ubc15_": 2700, "\uc815\uc740_": 2701, "\uacf5\uac04": 2702, "\ub418\uae30_": 2703, "\uc5f4_": 2704, "\ud2f1": 2705, "\ub2c9": 2706, "\uac70\uccd0_": 2707, "\ubc88\uc9f8": 2708, "\uc6d4_": 2709, "\uc65c": 2710, "\uc720\ub2c8": 2711, "\ud2b8\uc5d0_": 2712, "\uc0ac\uc2e4\uc774_": 2713, "\ubd88\uacfc": 2714, "\uc544\ud30c\ud2b8_": 2715, "\uacbd\uae30\ub3c4_": 2716, "\ubb50": 2717, "\ub370\uc77c": 2718, "39": 2719, "\ubc29\uc2dd": 2720, "\uc77c\ub2e8_": 2721, "\ub098\uace0_": 2722, "\uad70\uc774_": 2723, "\ub108_": 2724, "\uc778\uacfc_": 2725, "\uac70\uc6b4_": 2726, "\uc704\uc6d0\ud68c_": 2727, "\ube14\ub799": 2728, "\uc7a5\uc560": 2729, "\ubc1b\uc9c0_": 2730, "\uc824": 2731, "\ud2b8\ub9ac": 2732, "\uc9e7": 2733, "\ud1b5\uacfc": 2734, "\uc804\uc774_": 2735, "\uc2a4\ud2f0": 2736, "\uc774\uc57c\uae30": 2737, "\ud558\uaca0\ub2e4\ub294_": 2738, "displaystyle_": 2739, "\ud68c\uc0ac": 2740, "\uad70\uc0ac": 2741, "\uce20_": 2742, "\uc1e0": 2743, "\ucef5": 2744, "\ucde8\uc7ac": 2745, "\ud574\uc57c": 2746, "\ub098\uc628\ub2e4": 2747, "\ub3c5\ub9bd": 2748, "\ub9e4\ucd9c": 2749, "\ud574\uc678_": 2750, "\ucd5c\uc885_": 2751, "\uc2a4\uce74": 2752, "\ubd81\ud55c\uc758_": 2753, "\uc790\ub8cc": 2754, "\uc804\ubc18": 2755, "\ubd84\uba85": 2756, "195": 2757, "\uc11c\ube44\uc2a4": 2758, "\ud574\ub97c_": 2759, "\uc2b9\ub9ac\ub97c_": 2760, "\ub3c4\ub85c": 2761, "\uc878\uc5c5": 2762, "\uad50\uc218\ub294_": 2763, "\uc778\uae30\ub97c_": 2764, "\uc791\ub144_": 2765, "\ub85c\uc758_": 2766, "\ub514\uc624": 2767, "\ub4dc\uac00_": 2768, "\uc644\ubcbd": 2769, "\uc2dc\uc124": 2770, "\uac1c\uc120": 2771, "\uc815\uc5d0_": 2772, "\uacb0\uacfc\ub97c_": 2773, "\uc870\uc815": 2774, "\uc218\uc694": 2775, "\ub530\ub77c": 2776, "\ud558\uc9c0\ub9cc": 2777, "\uc778\ub3c4": 2778, "\ucd5c\uadfc": 2779, "\uce74\ub4dc": 2780, "\uacbd\uc6b0\uac00_": 2781, "\ubd80\uc815": 2782, "\ub300\ud615_": 2783, "\uc904\uc5b4": 2784, "\uc190_": 2785, "FC": 2786, "\uc2dc\uc808": 2787, "\ub290\ub08c": 2788, "\uc9c0\uc640_": 2789, "\uacf5\uac1c_": 2790, "\uc99d_": 2791, "\ud3ec\ub974": 2792, "\ub978\ub2e4": 2793, "\uc0ac\uac74_": 2794, "\ubc14\ub77c": 2795, "\ub3c4\ucfc4": 2796, "\uc9d1\uc744_": 2797, "\ucd98_": 2798, "\uae30\uc640_": 2799, "\uc0ac\uc774\uc5d0_": 2800, "\uc798\ubabb": 2801, "\ub791_": 2802, "\ud1a1": 2803, "\ubcf5_": 2804, "\ub790\ub2e4": 2805, "\uc73c\ub85c\uc368_": 2806, "M_": 2807, "\ub9c8\ub974": 2808, "\uc704\uc758_": 2809, "\uc313": 2810, "\uadfc\ubb34": 2811, "\uc694\uae08": 2812, "\uc544\uc2a4": 2813, "\ub9ac\uc640_": 2814, "\ud68d": 2815, "\ubc31_": 2816, "\uac90": 2817, "3_": 2818, "\ub8cc\ub97c_": 2819, "\ub4e4\uace0_": 2820, "\ubb35": 2821, "\ub3c4\uc5d0_": 2822, "\ubc95\uc744_": 2823, "2\ucc9c": 2824, "\ud1b5_": 2825, "\ube44\uc2b7\ud55c_": 2826, "al_": 2827, "\ub86d\uac8c_": 2828, "\uc788\ub294\ub370": 2829, "\uc544\uc9c1": 2830, "*": 2831, "\uc804\ud658": 2832, "\ud300\uc740_": 2833, "\uad6c\uc758_": 2834, "\ub4dc\ub9ac": 2835, "es": 2836, "\ub0b8": 2837, "\uc120\uc218\ub4e4\uc774_": 2838, "PD": 2839, "\uad6c\ub9e4": 2840, "\ub86d": 2841, "\ub7ad": 2842, "\uad50\uccb4": 2843, "\uad50\uc218": 2844, "\uace0\uc694": 2845, "\uc2dd\uc73c\ub85c_": 2846, "\ub118\ub294_": 2847, "\uc9c0\uc815": 2848, "\uac00\uae4c": 2849, "48": 2850, "\uc6e0": 2851, "\ud6c4\ubcf4_": 2852, "\ud380": 2853, "\ub9cc\uc871": 2854, "\ub974\ub294_": 2855, "\ud3ed\ubc1c": 2856, "\ubca0\ub974": 2857, "\uc751\ub2f5": 2858, "\ubc84_": 2859, "}_": 2860, "\uc870\uac74": 2861, "\uc778\ud130\ubdf0\uc5d0\uc11c_": 2862, "ol": 2863, "\ud654\uac00_": 2864, "\uc774\uae30\ub3c4_": 2865, "\ub300\uc0c1": 2866, "\uae30\uc0ac": 2867, "\ub8e1": 2868, "\ud300\uc744_": 2869, "3\ub144": 2870, "\uac70\ub9ac": 2871, "\ud654\uc7a5": 2872, "\ud68c\uc5d0\uc11c_": 2873, "\ud558\ub098_": 2874, "\uc0dd\ud65c\uc744_": 2875, "\uc058": 2876, "\ud614": 2877, "5000": 2878, "\uac74\ucd95": 2879, "\ubaa8\uc591": 2880, "\ud638\uc758_": 2881, "\uace0\uc18d": 2882, "\uac00\uc218": 2883, "\ub0a8\uc544": 2884, "\ubb3c\uc774_": 2885, "\ub3c5\uc77c": 2886, "\ud615\uc744_": 2887, "\uc800\ub294_": 2888, "\uae08\uc561": 2889, "\ube44\ud589": 2890, "\uba85\uc5d0_": 2891, "\ube68": 2892, "\uc5d0\ub108": 2893, "\uc2dc\uc808_": 2894, "\uc640\ub294_": 2895, "\uc810\uc5d0_": 2896, "\ud53d": 2897, "\uaddc\ubaa8_": 2898, "\ube48_": 2899, "\uc5bc\ub9c8\ub098_": 2900, "\ubb34\ud55c\ub3c4\uc804": 2901, "TE": 2902, "\uc5f0\uc2b5": 2903, "\ub7ec\uc2dc\uc544": 2904, "\uac83\uacfc_": 2905, "\uc81c1": 2906, "\uc544\uc2dc\uc544_": 2907, "\uc778\uae30": 2908, "\ubaa8\ub450": 2909, "\ub300\uccb4": 2910, "\uc0c8\ubcbd": 2911, "\ucf8c": 2912, "\ud0ac_": 2913, "\uac24\ub7ed\uc2dcS": 2914, "\uc54c\uc544": 2915, "\uace7_": 2916, "\ud0a5": 2917, "\uc774\uc7ac": 2918, "\uce74\uba54\ub77c": 2919, "\uc0b6": 2920, "\uc0dd\uac01\ud55c\ub2e4": 2921, "\uacbd\uc81c_": 2922, "\ud55c\uad6d\uc740_": 2923, "\uc148\uc774\ub2e4": 2924, "\ub9c8\uc9c0\ub9c9": 2925, "\ub098\uc130\ub2e4": 2926, "P_": 2927, "\uc0c1\ud669\uc774_": 2928, "\uc790\ub791": 2929, "\uc158\uc744_": 2930, "\uc544\ube60": 2931, "\uae30\uc900\uc73c\ub85c_": 2932, "\uc720\uc77c": 2933, "\uac00\uc694": 2934, "\ube60\ub978_": 2935, "\ub9cc\ub098_": 2936, "\uc88b\ub2e4": 2937, "\uc720\uc7ac": 2938, "\uad00\uc740_": 2939, "\uac00\uaca9_": 2940, "\uc99d\uc744_": 2941, "op": 2942, "\ub3d9\ubb3c": 2943, "\uc598\uae30": 2944, "\uc804\ubc18_": 2945, "\ubd95": 2946, "\uace0\uc6a9": 2947, "j": 2948, "\uc774\uc9c0_": 2949, "\ub9d0\uc774_": 2950, "\uc5ed\uc0ac": 2951, "\uc5c4\ub9c8": 2952, "\ub300\ud654": 2953, "\ub4ec": 2954, "\ub77d_": 2955, "\ud604\uc740_": 2956, "\ud5a5\ud6c4_": 2957, "\ud6c4\uc5d0_": 2958, "\ub2e4\uac00": 2959, "\ub2e4\uc18c_": 2960, "\uc220_": 2961, "\uad00\uacc4\ub97c_": 2962, "\ud3ec\uc778": 2963, "\ub839_": 2964, "\ub85c\uc6b4_": 2965, "\uacf3\uc5d0_": 2966, "\ub4dc\uc5d0_": 2967, "\uc2dc\ud0a4\ub294_": 2968, "\ud6c8_": 2969, "\uc804\ud574\uc84c\ub2e4": 2970, "\ubbc0\ub85c_": 2971, "\uc8fc\ub97c_": 2972, "\ud68c\ub294_": 2973, "\ub300\ud68c": 2974, "\ud45c_": 2975, "\ub9ac\ub85c_": 2976, "\ub9ac\ud3ec": 2977, "\uc5b4\ub9b0_": 2978, "\uc785\uc744_": 2979, "\uc571": 2980, "\ucc2c_": 2981, "\uc728\uc744_": 2982, "\uc774\ub2dd_": 2983, "\uc2e4\uc744_": 2984, "\uc544\ub4e4_": 2985, "2010": 2986, "\uc57d\uc18d": 2987, "\uc628\ub77c\uc778_": 2988, "\uc77c\ubc18_": 2989, "\uba78": 2990, "\ubc14\ub00c": 2991, "\uba87": 2992, "\uc5b4\ub3c4_": 2993, "\uc758\ud55c_": 2994, "\uc2a4\ud3ec\uce20_": 2995, "un": 2996, "\uc558\ub358_": 2997, "\ub3c4\ucc29": 2998, "\uc694\uc998": 2999, "\uaf2d_": 3000, "\ub208\uc5d0_": 3001, "\uc6d0\ub0b4": 3002, "\uc5d0\uac8c": 3003, "\ub35c": 3004, "\ube44\ub86f\ud574_": 3005, "\uc5ec\uae30\uc5d0_": 3006, "\uae4c\uc9c0\ub294_": 3007, "\ub458\ub7ec": 3008, "\uc11c\ub3c4_": 3009, "\uc9c0\ud718": 3010, "\ud574\uc11d": 3011, "\ub9cc\uc6d0\uc744_": 3012, "\ub2e8\uacc4": 3013, "\uc2dc\uac00_": 3014, "\uc5c5\uccb4_": 3015, "\uc544\ub2cc": 3016, "\uc5c6\uc744_": 3017, "\ub860_": 3018, "\uc2e0\uc6a9": 3019, "\ubc1c\ub9e4": 3020, "\ud14c_": 3021, "\ucc28\ub7c9": 3022, "\uac04\ub2e4": 3023, "\ubc24_": 3024, "\ud504\ub9ac\ubbf8\uc5b4": 3025, "\uc758\ub8cc": 3026, "\ud3c9\ud654": 3027, "\uc544\uce68": 3028, "\uc9c0\uae08\uae4c\uc9c0_": 3029, "\uad11\uace0": 3030, "\ucd9c\uc2e0_": 3031, "\ub9d0\ub85c_": 3032, "\uc774\ub300": 3033, "\ubbfc\uc871": 3034, "\ube44\ub86f\ud55c_": 3035, "\uc77c\ub85c_": 3036, "\uacbd\uc744_": 3037, "\ucef4\ud4e8": 3038, "\ub450\uc0b0": 3039, "\ud798\ub4e4": 3040, "\uc218\ud589": 3041, "\uc804\uad6d": 3042, "\uc774\ud558": 3043, "\ud22c\uc218_": 3044, "\uc544\ub798": 3045, "55": 3046, "\uc6b0\uc120_": 3047, "\ud68c\ub2f4": 3048, "\ud558\uc600\uace0": 3049, "\ubaa9_": 3050, "\uc6b0\uc2b9\uc744_": 3051, "\uc218\uc11d": 3052, "\ubd88\uad6c\ud558\uace0_": 3053, "\ud751": 3054, "\uae40\uc601": 3055, "\ud310\uacb0": 3056, "\ubc18\uc601": 3057, "\ubc30\ub97c_": 3058, "\ub098\uc11c_": 3059, "\ubaa8\ubc14\uc77c_": 3060, "\uc808_": 3061, "\ub2cc": 3062, "\uae40\ud604": 3063, "\ud55c\ub098\ub77c\ub2f9_": 3064, "\ubb38\uc81c_": 3065, "\u25b3": 3066, "\uc601\uad6d": 3067, "\uc6c3\uc74c\uc744_": 3068, "\ubcc0\uacbd": 3069, "\uc21c_": 3070, "2016\ub144_": 3071, "\uacf3\uc5d0\uc11c_": 3072, "\ud504\ub808": 3073, "400": 3074, "st": 3075, "\ud14d": 3076, "\ubc1d\ud78c_": 3077, "\ud0d3": 3078, "2005\ub144_": 3079, "\uc788\uc9c0_": 3080, "\ubd84\uc5d0_": 3081, "\uc785\uace0_": 3082, "\ub2f4\ub2f9": 3083, "\uac00\uc758_": 3084, "\ub2e8\uc740_": 3085, "\uc55e\uc5d0\uc11c_": 3086, "\uc774\ub4e4\uc758_": 3087, "\uc138\uc6d4": 3088, "\uc704\ud574": 3089, "\uc5fd": 3090, "\ub140_": 3091, "\uaca0\uc2b5\ub2c8\ub2e4": 3092, "IT": 3093, "\ud0d5": 3094, "\uacbd\ucc30\uc5d0_": 3095, "\uc548\uc774_": 3096, "\ube44\uc911": 3097, "\uc544\uc758_": 3098, "\uc878": 3099, "\uc874_": 3100, "\ud3b4": 3101, "\uc655_": 3102, "\uc5c5\ubb34": 3103, "\ub3c8_": 3104, "\uac8c\uc774": 3105, "\uc81c\ud488_": 3106, "\uc778\ubbfc": 3107, "\u25c7": 3108, "\uc11c\ube44\uc2a4_": 3109, "\uc18c\uac00_": 3110, "er_": 3111, "\uac1c\ub9c9": 3112, "\uc73c\uba74\uc11c_": 3113, "\uac1c\uc815": 3114, "\uacf5_": 3115, "\ub7ab": 3116, "\uae30\uace0_": 3117, "\uc8fc\uc778\uacf5": 3118, "\uae54": 3119, "\uc544\uc6c3": 3120, "\uc0c1\uc740_": 3121, "\uba5c": 3122, "\uacbd\uae30\uac00_": 3123, "\uc544\uc2dc\uc548": 3124, "\uc644\uc804\ud788_": 3125, "\ub098\uc758_": 3126, "\ud130\ub97c_": 3127, "B_": 3128, "\uac8c\uc7ac": 3129, "\uba74\uc11c": 3130, "\uad6c\ub2e8": 3131, "\ud68c\uc5d0_": 3132, "\ub825\uc740_": 3133, "\uc5ec\ud589": 3134, "\ubc97\uc5b4": 3135, "\ub9cc\ub098": 3136, "\uc608\uc0b0": 3137, "\uc2a4\ub85c_": 3138, "\uc790\uc8fc_": 3139, "\ud3ec\uae30": 3140, "\ud558\ub77c": 3141, "\uc544\uac00_": 3142, "\uae30\uc900_": 3143, "\ub78d": 3144, "\uc720\ud1b5": 3145, "\uc55e\uc5d0_": 3146, "\uc0b0\uc744_": 3147, "\uc8fc\uac00_": 3148, "\uc7ac\ubbf8": 3149, "\ube44\ubc00": 3150, "\uad00\uc774_": 3151, "\uc788\ub294\ub370_": 3152, "\ube44\ub294_": 3153, "\ub611": 3154, "\uacf5\uc5f0": 3155, "\ucc28\uc9c0": 3156, "\uc0ac\ub78c\uc758_": 3157, "\uc528\uc640_": 3158, "FC_": 3159, "\ubaa8\ub97c_": 3160, "\uc15c": 3161, "\ubc0d": 3162, "\uc774\uc720\ub294_": 3163, "9\ub144_": 3164, "\ub0a8\ubd81": 3165, "\uc5f4\ub9ac\ub294_": 3166, "\uad6d\ubbfc_": 3167, "\ud55c\ub2e4\uba74_": 3168, "\uc5ed\ub300_": 3169, "\uc120\uc740_": 3170, "om": 3171, "\uc54c\ub824\uc838_": 3172, "\ub960\uc774_": 3173, "\ube68\ub9ac_": 3174, "\ubabb\ud558\ub294_": 3175, "\ub054": 3176, "\uace0\ub294_": 3177, "\uc80a\uc740_": 3178, "\uc774\uc758_": 3179, "\ucee4\ud50c": 3180, "\ub0a8\uc790_": 3181, "\uaca0\ub2e4\uace0_": 3182, "\uac00\ub9ac": 3183, "\u25b6": 3184, "\uc774\uc601": 3185, "FI": 3186, "\uc5b4\uc57c_": 3187, "\ubbf8\ub2c8": 3188, "IS": 3189, "\uc5d4\ud130\ud14c\uc778\uba3c": 3190, "\ubcf4\ub97c_": 3191, "\ub2f9\uc5f0": 3192, "\uc561_": 3193, "\uac8c\uc2dc": 3194, "\uc18c\uc720": 3195, "\uac00\ub2a5\ud55c_": 3196, "\ud53c\ud574_": 3197, "\uc2a4\ub7fd\uac8c_": 3198, "\uc568\ubc94": 3199, "\ucf00_": 3200, "\ubc30\uce58": 3201, "\uad6d\ubb34": 3202, "\ud55c\ub098\ub77c": 3203, "\ud588\ub294\ub370": 3204, "\uac00\uaca9\uc774_": 3205, "\ubd80\uc640_": 3206, "\ud0c0\uace0_": 3207, "\ud569\ub958": 3208, "\ub144\uc5d0\ub294_": 3209, "\ub480": 3210, "\uafb8\uc900": 3211, "MC": 3212, "\uacfd": 3213, "\ubc94_": 3214, "\uadf8\ub9ac": 3215, "\uad8c\uc758_": 3216, "\uc9d1\uc5d0_": 3217, "\ub2f9\uc120": 3218, "\uacf5\uacf5": 3219, "\ucc59": 3220, "\uac04\uc5d0_": 3221, "\uc77c\ubcf8\uc5b4": 3222, "\uc885\uc758_": 3223, "\uc62c\ub9ac": 3224, "\ucef5_": 3225, "\uc2a4\uc5d0\uc11c_": 3226, "\ubc1c\uc744_": 3227, "\uac70\ub9ac_": 3228, "\ub9e8\uccb4\uc2a4\ud130_": 3229, "\ub2e4\uc800": 3230, "2\ub8e8": 3231, "\uc218\uc218": 3232, "\uad00\uc744_": 3233, "\uc624\ub79c": 3234, "\ub3d9\uc744_": 3235, "\ud56d\uc0c1_": 3236, "\uc5d1": 3237, "\uc190\uc744_": 3238, "\uae00\ub85c\ubc8c_": 3239, "\ucc98\ubc8c": 3240, "\uce74\ub4dc_": 3241, "\ub2e8\uc758_": 3242, "\uc785_": 3243, "\uc5b4\uc11c_": 3244, "\ubb38\uc774_": 3245, "\ub290\ub07c": 3246, "\ud600_": 3247, "\ub0ae\uc740_": 3248, "\ud64d\ubcf4": 3249, "\uc138\uc774": 3250, "\ub9cc\ub4e4\uc5b4_": 3251, "\uce58\ub8cc": 3252, "\uc5f0\ucd9c": 3253, "\u339e": 3254, "\uac1c\uc778_": 3255, "\uc774\ub358_": 3256, "\ub9c8\ubb34\ub9ac": 3257, "\ud32c\ub4e4\uc758_": 3258, "5\ucc9c": 3259, "\uc774\uc0ac": 3260, "\uc5c6\ub2e4\uace0_": 3261, "i_": 3262, "\uc1fc\ud551": 3263, "\ud328_": 3264, "\uc54c\ub824\uc9c4_": 3265, "\ubca0\ud2b8": 3266, "\uace7": 3267, "\uc870\uae08": 3268, "\uc790\uc2e0\uc744_": 3269, "\uc2dc\ub300": 3270, "\ub834": 3271, "\ub3c4\uc804": 3272, "\uc9c0\ub09c\ud574": 3273, "\ud6e8\uc52c_": 3274, "\uc81c\uc758_": 3275, "\uacf5\uac1c\ub41c_": 3276, "\ub04c\uc5b4": 3277, "\uad00\uc2ec": 3278, "\ud6c4\ubc18": 3279, "\ud648\ud398\uc774": 3280, "\uc804\uc758_": 3281, "\uc5c6\uc5b4_": 3282, "\ub2e8\uc5d0_": 3283, "\ub9c8\ub4dc\ub9ac": 3284, "\uae08\uc9c0": 3285, "\ub354\ubd88": 3286, "\ud55c\ubc88_": 3287, "\ub9c8\ucf00": 3288, "\uc14b": 3289, "PC": 3290, "\ud639\uc740_": 3291, "\uc758\uacac\uc744_": 3292, "\ub098\uc624\ub294_": 3293, "\ud588\uae30_": 3294, "\uae08\uc774_": 3295, "\uc790\ub9ac_": 3296, "\ud558\ub294": 3297, "\ud669_": 3298, "Th": 3299, "\ub9d0\ud55c\ub2e4": 3300, "\uc7a5\uae30": 3301, "\ub9c8\uc744": 3302, "\uc288\ud305": 3303, "\uc778\uac04": 3304, "\ud558\ub824\ub294_": 3305, "\uc678\uad6d\uc778_": 3306, "\uc6d0\uce59": 3307, "\uc548\ud0c0_": 3308, "\uc720\ub9ac": 3309, "\uc5c5\uc744_": 3310, "math": 3311, "\uc0ac\ub791\uc744_": 3312, "\uc120\uc5d0_": 3313, "\uc774\ub4e4\uc774_": 3314, "\ub824\ub294_": 3315, "\uacbc": 3316, "1\uc704\ub97c_": 3317, "\uce90\ub098": 3318, "\ub0b3": 3319, "\uc9c0\uac8c_": 3320, "\ud610\uc758": 3321, "\ub098\uc624\uace0_": 3322, "\ub178\ubb34": 3323, "\uac15\ub825\ud55c_": 3324, "\ud0d1\uc7ac": 3325, "\uc2e0\ub8b0": 3326, "\uc81c\uc548": 3327, "\ub300\ud559\uad50_": 3328, "\ud2b8\uc5d0\uc11c_": 3329, "\ucda9\uaca9": 3330, "KIA": 3331, "\uc05c_": 3332, "\uc5f4\uc2ec\ud788_": 3333, "\uc774\uc804": 3334, "\ubd88\uc548": 3335, "\uc0c1\ub300_": 3336, "\uc9c0\uae08\uc740_": 3337, "\uc804\ub0a0_": 3338, "\uc815\uc758": 3339, "\uc911\uad6d\uc758_": 3340, "\ud6c8\ub828\uc744_": 3341, "\ubc29\uc744_": 3342, "\ub2e5": 3343, "\ud2b9\uc9d5": 3344, "\ud558\ub2e4\uace0_": 3345, "\ub4f1\ud310": 3346, "\uba74\uc744_": 3347, "\ud559\uc0dd_": 3348, "\uc62c\ub9b0_": 3349, "\ub5a8": 3350, "\uc801\uc774\ub2e4": 3351, "\uac71\uc815": 3352, "\ud1b5\ud55c_": 3353, "\ud589\uc0ac": 3354, "\ub2f9\uc744_": 3355, "\ub4dc\ub7ec\ub0c8\ub2e4": 3356, "\ub3cc_": 3357, "\uc73c\ub2c8_": 3358, "ro": 3359, "\ub9cc\ub09c_": 3360, "\ud2b8\ub85c_": 3361, "\ucda9\ubd84\ud788_": 3362, "\uc81c2": 3363, "\uc639": 3364, "\ucde8\uc5c5": 3365, "L_": 3366, "\ud615\uc131": 3367, "\uc608\ub97c_": 3368, "\ucdb0_": 3369, "\uc131\uacfc": 3370, "\ub4dd\uc810": 3371, "\uc560_": 3372, "\ub300\ud45c\ud300": 3373, "\uad6c\ub2e8_": 3374, "\ub514\uc2a4": 3375, "\uc778\ub4e4\uc774_": 3376, "\ub098\uc120_": 3377, "\ub3d9\ub8cc": 3378, "\u25b2_": 3379, "\uacfc\uac70": 3380, "\uc0ac\uc0c1_": 3381, "\ubc14\ub2e4": 3382, "\ubd84\uae30_": 3383, "\uae30\uc18c": 3384, "\ud614\ub2e4": 3385, "\ubc11": 3386, "2004\ub144_": 3387, "\uae30\ub85d\uc744_": 3388, "\uc804\uae30": 3389, "2008": 3390, "\uc2a4\ub7fd": 3391, "\uc9c1\ud6c4_": 3392, "\ud61c\ud0dd": 3393, "\ub8b0": 3394, "\uc2dc\uc7a5\uc5d0\uc11c_": 3395, "\uba74\uc5d0_": 3396, "\ub2e8\uc21c": 3397, "\ud600": 3398, "4\ub144": 3399, "\uc790\uc5d0\uac8c_": 3400, "\uc788\uc9c0\ub9cc": 3401, "\ub378": 3402, "\ub2e8\uc774_": 3403, "\uc120\uace0": 3404, "\ucc54\ud53c\uc5b8\uc2a4": 3405, "\ubc14\ud0d5": 3406, "\uc790\ucc45": 3407, "\uc130\ub2e4": 3408, "\ud138\uc5b4": 3409, "\ubc14\ub974\uc140\ub85c": 3410, "\ub144\uac04_": 3411, "\uc790\ub4e4\uc744_": 3412, "\ud504\ub791\uc2a4": 3413, "\uc0ac\ub839": 3414, "\uc9c0\uc6d0_": 3415, "\ubc14\uafb8": 3416, "\uc544\ub098\uc6b4": 3417, "\uc790\ub3d9\ucc28_": 3418, "\ucdb0": 3419, "\ucd5c\uc885": 3420, "\ud2c0_": 3421, "\ub9ac\uba70_": 3422, "\uc544\ub984": 3423, "\uc774\uc288": 3424, "\uc7a1\uace0_": 3425, "\uc0dd\uac01\uc744_": 3426, "\uc138\ub85c_": 3427, "\uae30\ubc18": 3428, "\uc778\uac00": 3429, "\ud050": 3430, "\uce74\uce74": 3431, "I_": 3432, "\ub77c\uba74_": 3433, "\ub0b4\uc5d0_": 3434, "\ub8ec": 3435, "\uc720\ub098\uc774\ud2f0": 3436, "\ucf58\uc11c": 3437, "\ucc28\uc774": 3438, "\ub4dc\uc5d0\uc11c_": 3439, "\ud55c\ubc18": 3440, "\uc5c5\uacc4_": 3441, "\uc6e8\uc774": 3442, "\uc815\ud655": 3443, "\uac00\ub974": 3444, "\uc815\ubcf4\ub97c_": 3445, "\uc18d\uc5d0\uc11c_": 3446, "\ub098\uba38\uc9c0_": 3447, "\uad73": 3448, "\uc131\ub3c4_": 3449, "\uae30\uc790_": 3450, "\uc9c4\uc9dc_": 3451, "\ub420": 3452, "q": 3453, "\ubb34\ub97c_": 3454, "\uc6d0\ud558\ub294_": 3455, "\ub304": 3456, "\ucc28\ub294_": 3457, "\ub530\ub974": 3458, "\uc2dc\ub300_": 3459, "\ud06c\ub2e4": 3460, "\ubc1c\ud45c\ud588\ub2e4": 3461, "\ub5a8\uc5b4\uc9c4_": 3462, "\ub9cc\uc57d_": 3463, "\ub098\uc9c0_": 3464, "\uc18c\uc5d0_": 3465, "\uc5f0\ub77d": 3466, "LG_": 3467, "\uc788\uc5b4": 3468, "49": 3469, "47": 3470, "\uc774\ub8e8": 3471, "\ud0dc_": 3472, "\ubd84\ub958": 3473, "\uc138\uc758_": 3474, "\ub3d9\uc0dd": 3475, "\ubc1c\uc0dd\ud55c_": 3476, "\ubc29\uc548\uc744_": 3477, "\uc2dc\ub9ac\uc988_": 3478, "\uc12f": 3479, "\ub73b\uc744_": 3480, "\uaca9\uc744_": 3481, "\ub77c\uc6b4\ub4dc_": 3482, "\uacc4\uc57d_": 3483, "\ub9cc\ub4e4\uc5c8\ub2e4": 3484, "\uc9c8\uc744_": 3485, "46": 3486, "\uac78\uccd0_": 3487, "\ub124\ub35c\ub780": 3488, "\uc2e0\uc774_": 3489, "\uc2a4\ucf00": 3490, "of_": 3491, "\uc870\uce58": 3492, "\ud544\uc694\uac00_": 3493, "\ubd81\ud55c\uc774_": 3494, "\uc774\uba74_": 3495, "\uac1c\ubd09": 3496, "\ubfcc": 3497, "\uc0ac\uc6b0": 3498, "\uc138\ub294_": 3499, "\uad6c\uc5d0_": 3500, "\uc5b8_": 3501, "\uac70\ub4ed": 3502, "\ub2f5\ud588\ub2e4": 3503, "\ud611\ub825": 3504, "Z": 3505, "\uc5c6\uc5c8": 3506, "\uad6c\uc785": 3507, "\uce21\uba74": 3508, "\ud569_": 3509, "\ubc15\ucc2c": 3510, "\ud0dc\uc591": 3511, "\uc138\ub300_": 3512, "\ub960\uc744_": 3513, "\uc77d": 3514, "\uc9c8\ubb38\uc5d0_": 3515, "\ub098\ub97c_": 3516, "\uc804\ubd80\ud130_": 3517, "\uc989_": 3518, "\ubaa9\uc744_": 3519, "\uc27d\uc9c0_": 3520, "\uad6d\uac00_": 3521, "\ud398\uc774\uc2a4": 3522, "\ud3ed_": 3523, "\ub784": 3524, "\uba4b": 3525, "\uc778\uc2dd": 3526, "\uc6b0\uc8fc": 3527, "\ubd80\uc778": 3528, "\ud5a5\ud574_": 3529, "6_": 3530, "\uc120\uc5d0\uc11c_": 3531, "\uc218\ucd9c": 3532, "\ud0c0\uc784": 3533, "\uc9c0\uad6c": 3534, "\uc774\uc2b9\uc5fd": 3535, "\uc5e0": 3536, "\uc11c\ube44\uc2a4\ub97c_": 3537, "2002\ub144_": 3538, "in_": 3539, "\ube60\ub974": 3540, "\uc796": 3541, "\ubc1c\ud45c\ud55c_": 3542, "\uc9c1\uc7a5": 3543, "\ubd80\ub3d9\uc0b0_": 3544, "\ub4f1\uacfc_": 3545, "\uc774\uc5b4\uc11c_": 3546, "\uc2dd\ud488": 3547, "\ube44\uc11c": 3548, "\uc81c\uc870": 3549, "\uc5d8_": 3550, "\uccad\ub144": 3551, "\ud55c\ud654_": 3552, "\ud138_": 3553, "\uac00\ub2a5\ud558\ub2e4": 3554, "\uc18c\uc2dd": 3555, "\uace0\ub97c_": 3556, "\ubcf5\uc9c0": 3557, "G_": 3558, "\uadf8\ub0e5_": 3559, "\uac1c\uadf8": 3560, "\uc21c\uac04": 3561, "\uc774\uac19\uc740_": 3562, "\ud3ec\uc778\ud2b8_": 3563, "\ud544\uc694\ud558\ub2e4": 3564, "\ub418\uc5c8\uace0": 3565, "\uc131\ub2a5": 3566, "\uc99d\uac70": 3567, "\uc6f9": 3568, "\ud2f8": 3569, "\uc92c": 3570, "\uce58\uc9c0_": 3571, "3\ucc9c": 3572, "\ub300\ubcc0\uc778\uc740_": 3573, "\uc5f0\uc744_": 3574, "\uc37c": 3575, "\ub4dc\ub798": 3576, "\uc11c\uc5d0_": 3577, "\ub300\ud559\uad50": 3578, "\uc77c\uc5d0\ub294_": 3579, "\uce90\ub9ad\ud130": 3580, "\ubb34\ub9ac": 3581, "\ub0a8\uc131": 3582, "\uc784\uba85": 3583, "\ub9e4\uccb4": 3584, "\uc77c\ubd80": 3585, "\ucc28\ubcc4": 3586, "\ub370\ubdd4_": 3587, "\ud3ec\ud1a0": 3588, "4_": 3589, "\uc5b4\ub294_": 3590, "O_": 3591, "\u25b7": 3592, "\uc0dd\uac01\uc774_": 3593, "\ub300\ud55c\ubbfc": 3594, "\uc2b9\ubd80": 3595, "\uc801\uc808": 3596, "\uc774\ubbfc": 3597, "\ud504\ub85c\uc81d": 3598, "\uc678\uc5d0_": 3599, "\uc601\uc0c1_": 3600, "\uc74c\uc2dd": 3601, "\uc2f6\uc740_": 3602, "\uc218\ud55c_": 3603, "65": 3604, "\ubd80\uc9c4": 3605, "\ud0c0\ub97c_": 3606, "\uac00\ub7c9_": 3607, "\uac11\uc790\uae30_": 3608, "\ucbe4_": 3609, "\uc2dc\ucf1c_": 3610, "\ub538_": 3611, "OS": 3612, "\uc804\ud574": 3613, "\uc774\ub8e8\uc5b4": 3614, "\uc778\uadfc_": 3615, "\ubb34\ub824_": 3616, "2009": 3617, "\uc778\ub3c4_": 3618, "\uccb4\ud3ec": 3619, "\uc790\uce58": 3620, "\uc774\uac8c_": 3621, "\uc758\uc6d0\uc774_": 3622, "\uc2dd\uc774_": 3623, "\ubcf8\ub2e4": 3624, "\uad6d\uc744_": 3625, "SNS": 3626, "\ucd5c\ucd08\ub85c_": 3627, "\uac15\uc6d0": 3628, "\ud574\uc9c4_": 3629, "\uc790\uae30_": 3630, "\uc9c0\ud0a4": 3631, "\uc0cc": 3632, "\ud568_": 3633, "\ub9cc\ub4dc\ub294_": 3634, "\uc9c0\uc5d0\uc11c_": 3635, "\ud37c_": 3636, "\ub0e5": 3637, "\uae30\uc874": 3638, "\uc544\ub4e4": 3639, "\ub54c\uae4c\uc9c0_": 3640, "\ud2b8\ub7fc\ud504_": 3641, "\uc790\ub3d9\ucc28": 3642, "\ubd88\ud3b8": 3643, "\ud68c\uc7a5\uc740_": 3644, "\uadfc\uac70": 3645, "\ub3d9\uc6d0": 3646, "\u4e2d": 3647, "\uc9dd": 3648, "\ucf64": 3649, "\ubd04": 3650, "\uad8c\uc774_": 3651, "\ud638\ub0a0\ub450": 3652, "44": 3653, "\uac83\ucc98\ub7fc_": 3654, "\uc544\uc8fc_": 3655, "\ub3cc\ud30c": 3656, "\ud558\ub298": 3657, "\uc870\ucc28_": 3658, "\ub9ac\uc2a4": 3659, "\ud611\uc758": 3660, "\ub9de\uc544_": 3661, "\ud1a0\ub860": 3662, "\uac10\uc548": 3663, "\ud558\ub824": 3664, "\uad6c\ucd95": 3665, "ri": 3666, "\ub9bc_": 3667, "\uac12_": 3668, "\ubd84\uaed8_": 3669, "co": 3670, "\uae38\uc744_": 3671, "\ubd88\ubc95": 3672, "\ub454": 3673, "\ubd80\ub3d9": 3674, "\uc778\uc218": 3675, "\ub3c4\uc6c0\uc744_": 3676, "\uc4f4_": 3677, "\ud558\uae30": 3678, "\uc548\uc758_": 3679, "\ucc28\uc774\uac00_": 3680, "\uac24\ub7ed\uc2dc": 3681, "31\uc77c_": 3682, "\ub300\ud45c\uac00_": 3683, "\ub9c1_": 3684, "\uc785\uc740_": 3685, "\ubc18\ub4dc\uc2dc_": 3686, "\uc0c1\ud669\uc774\ub2e4": 3687, "\ub8f8": 3688, "\ubcf4\uc7a5": 3689, "\ud3ec\ud568\ud55c_": 3690, "\uc5b8\uc81c": 3691, "\ud0b9_": 3692, "\uc800\ub141": 3693, "\ud68c\uc7a5": 3694, "\uace4_": 3695, "\uc870\uc131": 3696, "\uc624\ub97c_": 3697, "\uccb4\ub97c_": 3698, "\ubca0\uc774\uc9d5": 3699, "\ub2c8\uc544": 3700, "\ubd80\ubb38": 3701, "\ucf1c": 3702, "\uc2dc\uc791\ud55c_": 3703, "\ubcd1\uc6d0_": 3704, "\ud558\uaca0\ub2e4\uace0_": 3705, "\ub1a8\ub2e4": 3706, "\ub300\uad6c": 3707, "\ub204\ub9ac": 3708, "\uc815\uc0c1\ud68c\ub2f4": 3709, "\ud0a4\uc2a4": 3710, "\ud33d": 3711, "\uc804\ud654_": 3712, "\uc784\ub300": 3713, "BC": 3714, "\ub354\ub2c8_": 3715, "\uc2a4\ud2b8\ub808": 3716, "\ub9e4\ub144_": 3717, "\uad70\uc744_": 3718, "\uc704\uc6d0\ud68c": 3719, "\uc11c\uac00_": 3720, "\ub418\uace0": 3721, "\ub9e8_": 3722, "\uc548\uc740_": 3723, "\ubd84\uc591": 3724, "\uc601\uc0c1\uc744_": 3725, "\ud655\uc0b0": 3726, "\ubd84\uc758_": 3727, "\ubb34\ub108": 3728, "\u33a1": 3729, "\uc0ac\ud1f4": 3730, "\uc0ac\uc5c5_": 3731, "\uc61b": 3732, "ra": 3733, "\uc789": 3734, "\uc624\ud504": 3735, "\uc0ac\ud56d": 3736, "\ub9ac\ubc84": 3737, "\ub2e4\uc6b4_": 3738, "\ucc3d_": 3739, "\uc27d": 3740, "\ub192\ub2e4": 3741, "\uc778\uc5d0_": 3742, "\uc57d\uc744_": 3743, "\ucf58\ud150": 3744, "\uce74\ud398": 3745, "\ub2e4\uba74_": 3746, "\uac74\uc744_": 3747, "\ubc1f": 3748, "\ub274\uc2a4_": 3749, "\uaef4": 3750, "\uacc4\uc758_": 3751, "\uc608\uc0c1\ub41c\ub2e4": 3752, "\uae30\ub85d\ud55c_": 3753, "\ub7c9\uc740_": 3754, "\uc0ac\uac74\uc744_": 3755, "\ub2f9\ud588\ub2e4": 3756, "\ubd80\uc0b0_": 3757, "\ub41c\ub2e4\ub294_": 3758, "\uc815\ud655\ud55c_": 3759, "\ubcf4\uc5ec\uc8fc": 3760, "\uc7a5\uad00\uc740_": 3761, "\ud638\ud761": 3762, "\ud508_": 3763, "\ud310\ub9e4_": 3764, "ig": 3765, "\ud558\ub294\ub370": 3766, "\ubd88\ub7ec": 3767, "\uadf8\ub140\ub294_": 3768, "\uba54\ub2ec\uc744_": 3769, "\uc6d0\ub798_": 3770, "\uc3df\uc544": 3771, "\uc548\uc5d0\uc11c_": 3772, "\uc790\ub140": 3773, "\uc218\uc6a9": 3774, "\ud3b8_": 3775, "\uc815\uc73c\ub85c_": 3776, "\uac00\uae4c\uc6b4_": 3777, "\ub825\uacfc_": 3778, "\ud130\ub728": 3779, "\ub418\uc5b4": 3780, "\ub989": 3781, "\uc804\ud1b5": 3782, "\ub369": 3783, "\u2192": 3784, "2\ucc28_": 3785, "\uba54\ub9ac": 3786, "\uc6c3\uc74c": 3787, "\uc77c\uc758_": 3788, "\uad11\uc8fc": 3789, "\uc5d0\uac8c\ub3c4_": 3790, "\uc11d\uc740_": 3791, "\uac00\ub2a5\uc131\uc744_": 3792, "\uc5b4\uc9c4_": 3793, "\ub418\uc790_": 3794, "\uc138\uae30_": 3795, "\uc774\ub77c\ub3c4_": 3796, "\uac80\ucc30\uc740_": 3797, "\uc790\ub8cc\ub97c_": 3798, "7_": 3799, "\uc5c8\uace0": 3800, "\ud328\ub97c_": 3801, "75": 3802, "ht": 3803, "\ucc38_": 3804, "\uc774\ud63c": 3805, "\uc2dc\ud588\ub2e4": 3806, "\uc815\ub9ac": 3807, "\uc678\uc5d0\ub3c4_": 3808, "\ud2b8\ub808\uc774": 3809, "\uc555\ubc15": 3810, "\ucf54\uce58": 3811, "ac": 3812, "\uacb0\ud63c_": 3813, "\ucc28\uc9c0\ud588\ub2e4": 3814, "\ub4f1\uc5d0\uc11c_": 3815, "\uc2dc\uc98c\uc744_": 3816, "\ud1b5\uc744_": 3817, "\uc131\uaca9": 3818, "\ud504\ub85c_": 3819, "\uc778\uae30_": 3820, "\ub204\uac00_": 3821, "\ucd2c\uc601_": 3822, "\uc544\ub0c8\ub2e4": 3823, "\uc804\ubb38_": 3824, "\ub137": 3825, "\ubcf4\uc778_": 3826, "\ucc2e": 3827, "\ud654\ub824": 3828, "\uc811\uadfc": 3829, "\uc5b5\uc6d0\uc744_": 3830, "\ub410\ub2e4\uace0_": 3831, "\uc601\uc758_": 3832, "\uc77c\uae4c": 3833, "\ube14_": 3834, "\uc804\uc740_": 3835, "\uc81c\ud488\uc744_": 3836, "\ub808\uc54c_": 3837, "\uc218\uc0ac_": 3838, "\uc5ed\ud560": 3839, "\uc608\uc220": 3840, "\uc6d0\uacfc_": 3841, "\ub531": 3842, "\ub4e4\ub85c_": 3843, "\uac00\uaca9\uc740_": 3844, "\uacc4\uac00_": 3845, "\uc704\uc548": 3846, "\ubcfc\ub137": 3847, "\uc2dc\ud0a8_": 3848, "\uc624\ubc14": 3849, "\uc704\ubc18": 3850, "\uc18c\ubc29": 3851, "\ud3bc\uccd0": 3852, "\uac00\uc815": 3853, "\uc9dc\ub9ac_": 3854, "\uc74c_": 3855, "\uac74\ubb3c": 3856, "\uc0ac\ud55c_": 3857, "A\uc528\ub294_": 3858, "\uad70\uc5d0_": 3859, "\uc7a1\uc558\ub2e4": 3860, "\ucca9": 3861, "\ucd5c\uc800": 3862, "\uc601\uc774_": 3863, "\uad6d\uc81c_": 3864, "\ud47c": 3865, "\ucda9\ubd84": 3866, "\uadf8\ub9bc": 3867, "\ud3c9\uc18c_": 3868, "\ubbf8\ub4dc\ud544": 3869, "\uc120\uac70_": 3870, "\uc18c\ud504\ud2b8": 3871, "\uc124\uc744_": 3872, "\uc70c": 3873, "\ub2ec\ub7ec_": 3874, "\uc644\uc131": 3875, "\ub300\ud574\uc11c\ub3c4_": 3876, "im": 3877, "ot": 3878, "\uc788\uc5b4\uc11c_": 3879, "\ub2f7\ucef4": 3880, "\uad8c\uc5d0_": 3881, "2\ucc28": 3882, "\ub2f9\ucd08_": 3883, "\ubd88\uac00": 3884, "\ub3d9\uc758_": 3885, "\ubc30\uacbd": 3886, "as": 3887, "\ud76c\uc0dd": 3888, "\ub3c4\uc640_": 3889, "\ub098\ubb34": 3890, "\ud53c\ud574\ub97c_": 3891, "\ub825\uc73c\ub85c_": 3892, "\ubcf4\uae30_": 3893, "\uc774\ub2ec_": 3894, "\ud0c0\uc790_": 3895, "\ucd5c_": 3896, "\ucd9c\ubc1c": 3897, "5\ub144": 3898, "\ub300\uc120_": 3899, "\ud64d\ucf69": 3900, "\u5927": 3901, "\ubb3c\ub7ec": 3902, "\ucd5c\ucd08": 3903, "\ud45c\ub97c_": 3904, "\uac70\ub4e0": 3905, "\ub410\ub358_": 3906, "CC": 3907, "\ub86f\ub370_": 3908, "\uae30\ub2a5\uc744_": 3909, "\ub05d\ub09c_": 3910, "\uc130": 3911, "\uc6b0\uace0_": 3912, "\uc774\ubca4": 3913, "\uc0ac\uac74\uc774_": 3914, "\uc0c8\ub85c_": 3915, "\ub974\uace0_": 3916, "\ud558\uc6b0": 3917, "\uc0ac\uc5d0\uc11c_": 3918, "\ub418\uba70_": 3919, "\uadf9_": 3920, "\uc0c1\ud0dc\ub2e4": 3921, "\uc560\ub2c8": 3922, "\ub300\ubcc0": 3923, "\uc608\uace0": 3924, "\uac00\uc6b4": 3925, "\ucd94\uc2e0": 3926, "\uc815\ubcf4_": 3927, "\uad00\ub828\ub41c_": 3928, "\uc5c4\uccad": 3929, "\uad6d\uc5d0_": 3930, "\ubcf4\ud1b5_": 3931, "\uc5b4\uac00_": 3932, "\uc18c\ub294_": 3933, "\ud584": 3934, "\ud558\ub824\uace0_": 3935, "\uac1c\ubc1c_": 3936, "\uba85\ub839": 3937, "\uc2e0\uc758_": 3938, "\ubba4\uc9c1": 3939, "\uc720\uc758_": 3940, "\uc2a4\ub7ec": 3941, "\uadf8\ub824": 3942, "\uc120\ubb3c": 3943, "\ub124\uc694": 3944, "\ub9cc\ud07c": 3945, "\uac00\uc11c_": 3946, "\uc758\uc0ac": 3947, "\uae4c_": 3948, "\ud65c\ub3d9_": 3949, "\uba55\uc2dc": 3950, "\uc704\ud574\uc11c\ub294_": 3951, "\ub313": 3952, "\uc774\ucc98\ub7fc_": 3953, "\ubb38\uc7ac\uc778_": 3954, "\ub178\ucd9c": 3955, "\uc774\uc885": 3956, "\ub098\ub204": 3957, "\ubcf4\ub0c8\ub2e4": 3958, "\ub098\ub3c4_": 3959, "\uc9c0\uc5ed\uc5d0_": 3960, "\uc790\uaca9": 3961, "\ucc45\uc784\uc744_": 3962, "\uad49\uc7a5": 3963, "FT": 3964, "\ub825\uc5d0_": 3965, "\uc9c1\uc744_": 3966, "\ub9ce\uc558\ub2e4": 3967, "\uc2dc\uc544": 3968, "\uacf5\uc815": 3969, "\uc8fc\uc5d0_": 3970, "\ud754\ub4e4": 3971, "\uc9c0\uc5ed\uc758_": 3972, "\ucc28\ub7c9_": 3973, "\uc544\ud504\ub9ac": 3974, "\uc815\ub2f9": 3975, "\ud65c\uc57d\uc744_": 3976, "\ubc14\ub2e5": 3977, "\ud798\ub4e0_": 3978, "\uae5c\uc9dd_": 3979, "\ub514\uc9c0": 3980, "\uc0ac\ub78c\uc744_": 3981, "\uae30\ucd08": 3982, "\u7f8e": 3983, "\ud6cc": 3984, "\ub144\uae4c\uc9c0_": 3985, "\uc2a4\ud398\uc778_": 3986, "\uc18c\uc7ac": 3987, "\uc5b4\ub85c_": 3988, "2\ub9cc": 3989, "10\ub144_": 3990, "\ub155": 3991, "\uc774\uc6a9\ud574_": 3992, "\uba64\ubc84_": 3993, "\ub54c\ub9c8\ub2e4_": 3994, "\ub85c\ub3c4_": 3995, "\ud0a4\ub294_": 3996, "\uc0c1\ubc18": 3997, "\ubc31\ud654": 3998, "\ub2ec\uc131": 3999, "\ub744": 4000, "\uc0c1\uc5d0\uc11c_": 4001, "\ud1a0\ud2b8\ub118": 4002, "\uc9c0\ub09c": 4003, "\ub098\uc654": 4004, "\ubabb\ud574_": 4005, "\uc81c\ubaa9": 4006, "\ud558\ub098\uc758_": 4007, "\uacf5\ub3d9_": 4008, "\uae0d\uc815": 4009, "\uae30\uc131\uc6a9": 4010, "\uae30\uc5d0\ub294_": 4011, "\uc778\uc0dd": 4012, "\uae40\uc885": 4013, "\ub4dc\ub85c_": 4014, "42": 4015, "SK\ud154\ub808\ucf64": 4016, "\uc815\uc758_": 4017, "150": 4018, "\uc911\uc18c": 4019, "\uc2ec\ud55c_": 4020, "\uc774\ub978": 4021, "\ub9de\ub294_": 4022, "\ub7ed": 4023, "2TV_": 4024, "\uc804\ud654\ub97c_": 4025, "\ub2f5\ubcc0": 4026, "\uc0ac\ub78c_": 4027, "2017\ub144_": 4028, "\uc568\ubc94_": 4029, "\ud558\ub2e4\uac00_": 4030, "190": 4031, "\uc2dc\uc7a5\uc5d0_": 4032, "\uadf8\ub7a8": 4033, "\ud610\uc758\ub97c_": 4034, "\ubcbc": 4035, "\uae5d": 4036, "\ub300\ubd80\ubd84\uc758_": 4037, "\ud3c9\uac00\ub97c_": 4038, "800": 4039, "\ucfe8": 4040, "\uc0ac\uc774_": 4041, "\uad00\uacc4_": 4042, "\uad04": 4043, "\ub2c8\uc544_": 4044, "\ub2e8\uccb4_": 4045, "\ub429": 4046, "\uc9c4\ud589_": 4047, "\uc870\uc120_": 4048, "\uc6b0\uc2b9_": 4049, "\ud648\ub7f0_": 4050, "3000": 4051, "99": 4052, "600": 4053, "\uc2a4\ud130_": 4054, "\uc78a": 4055, "\ub3c4\uc2dc_": 4056, "\ub364": 4057, "\ube57": 4058, "#": 4059, "\ub0a8\uc544_": 4060, "\uc790\ub9ac\uc5d0_": 4061, "\ucc3e\uc544_": 4062, "\uc2dc\uc7a5\uc758_": 4063, "\ub86c": 4064, "\ud749": 4065, "\uaebe": 4066, "\uc6b4\uc804": 4067, "\uc0ac\uc5c5\uc744_": 4068, "\uc870\uce58\ub97c_": 4069, "\ud6fc": 4070, "\uacb9": 4071, "com": 4072, "1990": 4073, "2018": 4074, "\ud78c": 4075, "\ub7fd": 4076, "\u65e5": 4077, "\uc18c\uc2dd\uc744_": 4078, "\uce94": 4079, "\uc635": 4080, "\ube44\uc2b7": 4081, "\uc5c9": 4082, "\ube10": 4083, "\uc74d": 4084, "\uacf5\uaca9\uc744_": 4085, "\uc9dd_": 4086, "\uc0ac\ud68c_": 4087, "\uc791\uc5c5\uc744_": 4088, "\uc2dc\uc7a5\uc774_": 4089, "\ub300\ud574": 4090, "\uc62c\ub77c_": 4091, "\ubc97": 4092, "\ucc54\ud53c\uc5b8": 4093, "\ucd9c\uc2dc_": 4094, "\ud3a0": 4095, "@": 4096, "\ucdc4": 4097, "\uacfc\uc815\uc744_": 4098, "\ubcf4\uc5ec_": 4099, "\uad1c": 4100, "\uc2eb": 4101, "\ud398\uc774": 4102, "\ubd88\ubc95_": 4103, "\uafd4": 4104, "\ubbf9": 4105, "\ubc29\uc2dd\uc73c\ub85c_": 4106, "\uc9c1\uc6d0_": 4107, "\ub98e": 4108, "\uc557": 4109, "\ubc14\ub974": 4110, "\uac77": 4111, "\ub5bc": 4112, "\ub300\ud68c\uc5d0\uc11c_": 4113, "\ud6c4\ubcf4\ub294_": 4114, "\uc6d4\ub4dc": 4115, "\ubc8c_": 4116, "\ud0ac": 4117, "\ub69c": 4118, "\ud1a8": 4119, "\ub2ec\ub77c\uace0_": 4120, "\ub300\ud574\uc11c_": 4121, "\ub0ad": 4122, "\uc0bc\uc131\uc804\uc790_": 4123, "\uc628\ub77c": 4124, "\ub2eb": 4125, "\uac00\uc9c0\ub85c_": 4126, "\uc2dc\uc544_": 4127, "\ucef7": 4128, "\uc580": 4129, "\uc3d8": 4130, "\ud329": 4131, "\ub7ac": 4132, "\ub3cb": 4133, "\ub8e9": 4134, "\ud034": 4135, "\uc5c8\uace0_": 4136, "\uc22d": 4137, "\ucf69": 4138, "\ub300\uc0c1_": 4139, "\ub9e4\uccb4_": 4140, "\ud558\ub824_": 4141, "\uc6b4\ub3d9\uc744_": 4142, "\ud6a1": 4143, "\ub2db": 4144, "\uc815\ub3c4\uc758_": 4145, "\uc9c8\ubb38": 4146, "\uc5bc\ub9c8_": 4147, "\uc774\ub77c\uba74_": 4148, "\ub098\uac00_": 4149, "\ubb38\uc81c\ub85c_": 4150, "\ub41c\ub2e4\uace0_": 4151, "\ucad3": 4152, "\uc170": 4153, "\uc2dc\uc7a5\uc744_": 4154, "\u5317": 4155, "BC_": 4156, "\uc774\ub2dd": 4157, "\ud68c\uc7a5_": 4158, "\ucf30": 4159, "\ud280": 4160, "\ub800": 4161, "\ub9ac\uc2a4_": 4162, "\ub300\ucd9c_": 4163, "\uc5b8\ub860_": 4164, "\ub2e4\uc591": 4165, "\ud68c\uc758\ub97c_": 4166, "\uc9c0\uc6d0\uc744_": 4167, "\ub0a8\uc131_": 4168, "\uc13c\ud130_": 4169, "\uc719": 4170, "\ud31d": 4171, "\uac00\uaca9\uc744_": 4172, "\uc22b": 4173, "\ubd80\ubd84\uc774_": 4174, "\ub410\ub2e4\ub294_": 4175, "\ud0a8_": 4176, "\ubaa8\ubc14": 4177, "\uc120\uc218\ub294_": 4178, "\uc881": 4179, "\ub2ed": 4180, "\uaf3c": 4181, "\uc120\uc218\ub85c_": 4182, "2018\ub144_": 4183, "\ud154\ub808": 4184, "\ube75": 4185, "\ubcf4\uc774\uc9c0_": 4186, "\uc778\ucc9c_": 4187, "\ubf08": 4188, "\uad00\ub9ac_": 4189, "\uc3e0": 4190, "700": 4191, "\uae30\uc220\uc744_": 4192, "\uc790\uccb4_": 4193, "\ucef8": 4194, "\uc720\uba85_": 4195, "\uc6b0\ub9ac\uc758_": 4196, "\ud070": 4197, "\ud1b5\uc2e0_": 4198, "\uc998": 4199, "\uba48": 4200, "\ud55c\uad6d\uc5d0_": 4201, "\uc149": 4202, "\ubdf0": 4203, "\uad00\uacc4\uac00_": 4204, "\uc548\ud0c0\ub97c_": 4205, "km_": 4206, "\uc758\uc0ac\ub97c_": 4207, "\ubd07": 4208, "\uae30\uad00_": 4209, "\uc598\uae30\ub97c_": 4210, "\uc0d8": 4211, "\uc18c\ub144_": 4212, "\uc790\ub3d9": 4213, "\uaf34": 4214, "\u25c6": 4215, "\uc300": 4216, "\ub799": 4217, "\uae30\uc220_": 4218, "\ud2c8": 4219, "\uce98": 4220, "\u0430": 4221, "\uce58\ub8cc\ub97c_": 4222, "\uc801\uadf9_": 4223, "\uc120\uc218\ub97c_": 4224, "00": 4225, "\uc5f0\uae30\ub97c_": 4226, "\uc544\uc774\ub97c_": 4227, "\ubc85": 4228, "\uacbd\uae30\ub294_": 4229, "\ud15c": 4230, "\ub2ee": 4231, "\ud56b": 4232, "\uc2dc\uc7a5\uc740_": 4233, "\ud729": 4234, "\ub450\uc0b0_": 4235, "\uc0ac\uc9c4\uc774_": 4236, "\uba4d": 4237, "\uc804\uc790_": 4238, "\ub36e": 4239, "\uc218\uc0ac\ub97c_": 4240, "\uc778\ub2e4": 4241, "\uc2a4\ud3ec": 4242, "\ubb36": 4243, "\u300d": 4244, "\ubd80\ubb38_": 4245, "\uce5c\uad6c_": 4246, "\uc880": 4247, "\ud68c\uc7a5\uc774_": 4248, "\u300c": 4249, "\ub220": 4250, "\uc21c\uac04_": 4251, "\uc778\uc0ac\ub97c_": 4252, "\ub3d5": 4253, "\uc7a5\uad00_": 4254, ";": 4255, "\ubcc0\ud654\ub97c_": 4256, "\u5c71": 4257, "\uc778\ud130": 4258, "\uc2dc\ub300\uc758_": 4259, "\uad11\uace0_": 4260, "\ubc8c\uc5b4\uc9c4_": 4261, "\uc29b": 4262, "\uc704\ud574\uc11c_": 4263, "\u25a0": 4264, "\ub118\uc5b4_": 4265, "\uc774\uc804_": 4266, "\uacf1": 4267, "\uc704\uc6d0\uc740_": 4268, "\uc5ec\uc131\uc758_": 4269, "MBC": 4270, "\uada4": 4271, "\ub835": 4272, "\ubd89": 4273, "\ucf30\ub2e4": 4274, "\uacf5\uaca9_": 4275, "\uca4d": 4276, "\uc2dc\ucf1c": 4277, "\uc5ec\uc131\uc774_": 4278, "\ud55c\uad6d\uc774_": 4279, "\ub95c": 4280, "\uc2dc\uac04\uc5d0_": 4281, "\uc601\uad6d\uc758_": 4282, "es_": 4283, "\ub7a8": 4284, "\uac15\ub825": 4285, "\ucc14": 4286, "\uc0bc\uc131\uc804\uc790\ub294_": 4287, "1980": 4288, "\uc80a": 4289, "\u91d1": 4290, "\uacbd\uc6b0\ub294_": 4291, "\ucd9c\uc5f0_": 4292, "\uba54\ub2ec": 4293, "\ubd80\uc778_": 4294, "\uaf08": 4295, "\ud504\ub9ac\ubbf8": 4296, "\uc544\ub798_": 4297, "\ucea1": 4298, "\uc870\uac74_": 4299, "\uae30\ub85d_": 4300, "\ub8f0": 4301, "|": 4302, "\ud574\uc8fc\ub294_": 4303, "\ud68c\uc7a5\uc758_": 4304, "\ub17c\ub780_": 4305, "\uc148": 4306, "\uaecf": 4307, "rac": 4308, "\uc815\uce58_": 4309, "\ubf50": 4310, "\uc9c1\uc811": 4311, "KIA_": 4312, "\uc774\uc0c1\uc774_": 4313, "\ud604\uc9c0": 4314, "\ub080": 4315, "\uac8c\uc784\uc744_": 4316, "\uc0ac\uc6a9_": 4317, "\ubcf4\uc774\uba70_": 4318, "\ub518": 4319, "\uacfc\uc815": 4320, "\uc735": 4321, "\uc0ac\uace0\ub97c_": 4322, "2015": 4323, "\ud131": 4324, "\uacb0\uc815\uc744_": 4325, "\uc774\uc0c1\uc744_": 4326, "\uc744\uae4c_": 4327, "\ubc18\ub300_": 4328, "\ucffc": 4329, "\uc788\ub2e4\uba74_": 4330, "\uc2b9\ubd80\ub97c_": 4331, "\uc81c\ud55c_": 4332, "120": 4333, "\uce74\ub4dc\ub97c_": 4334, "\ubd80\uc0c1\uc744_": 4335, "\ubd80\ubd84\uc744_": 4336, "ww": 4337, "\ub12c": 4338, "\ub69d": 4339, "4000": 4340, "et_": 4341, "\ub9c8\ubb34\ub9ac_": 4342, "\uc11e": 4343, "\uae30\ub300\ub97c_": 4344, "\uc2a4\ucf00\uc774": 4345, "\ud770": 4346, "\ud30e": 4347, "\ub801": 4348, "\ud588\ub2e4\uac00_": 4349, "\ub4dd\uc810_": 4350, "\ucd9c\uc804_": 4351, "\ubc29\ubc95\uc744_": 4352, "\ubaab": 4353, "\ub7a9": 4354, "\ube44\ub86f": 4355, "\uc778\uc0c1_": 4356, "\ubed4": 4357, "\ucd1b": 4358, "\ub51c": 4359, "\ubd80\uc0c1_": 4360, "\ucd9c\uc2e0\uc758_": 4361, "\ub760": 4362, "\uc758\uc6d0\uc758_": 4363, "\ubaa8\ub974\ub294_": 4364, "\uc5f0\ud569_": 4365, "\uae30\ubcf8_": 4366, "\uc6b4\uc601_": 4367, "\uadf8\ub9ac\uc2a4": 4368, "\ud22c\uc790_": 4369, "\uc9c0\ubc29_": 4370, "\uc5c7": 4371, "\ub098\uac00\ub294_": 4372, "\ub300\ubd80\ubd84": 4373, "\uad50\uccb4_": 4374, "\ud578": 4375, "\ub96d": 4376, "\ub5a1": 4377, "\uac74\ubb3c_": 4378, "\uc6b4\ub3d9_": 4379, "\uce74\uba54\ub77c_": 4380, "\uc544\ub0b4_": 4381, "2016": 4382, "\ub79c\ub4dc\uc758_": 4383, "\uc9c0\uad6c_": 4384, "\ud589\uc0ac\ub97c_": 4385, "\uc9c0\uc801\uc774_": 4386, "\ud514": 4387, "\uc9c0\uc5ed\uc744_": 4388, "\uc0ac\uc774\uc758_": 4389, "\ucf08": 4390, "\ud558\ub77c_": 4391, "\ub9ac\uc2a4\ub9c8": 4392, "\ub428": 4393, "\ubb54": 4394, "\uae43": 4395, "\uc778\uacf5": 4396, "\uc5c8\ub2e4\uace0_": 4397, "\ud391": 4398, "\uc0c1\ub2f9\ud55c_": 4399, "\ub9e4\ucd9c_": 4400, "\uc788\uc5b4\uc57c_": 4401, "\uc7ad": 4402, "\ud589\ub3d9\uc744_": 4403, "\uacf5\uc5f0\uc744_": 4404, "\u043e": 4405, "\ubcf4\uc5ec\uc8fc\ub294_": 4406, "\ud55c\uad6d\uc744_": 4407, "\ub300\ud654\ub97c_": 4408, "\ub451": 4409, "\ud508": 4410, "\uac24": 4411, "\ubd88\uacfc_": 4412, "\ud558\ub77c\uace0_": 4413, "\uc694_": 4414, "\ub6ab": 4415, "\ud0f1": 4416, "\u6587": 4417, "\uad6d\ud68c": 4418, "\uc7a5\uba74\uc744_": 4419, "\ubc1c\ud45c_": 4420, "\uc778\uc0c1\uc744_": 4421, "\uadf8\ub7f0": 4422, "\ub178\ub825\uc744_": 4423, "\uc6f0": 4424, "\uac24\ub7ed\uc2dc_": 4425, "\uad11\uc8fc_": 4426, "\ucf04": 4427, "\ubca1": 4428, "\ud56d\uacf5_": 4429, "\uc815\ubd80\uc640_": 4430, "\ub300\uad6c_": 4431, "\uc8fc\uc7a5\uc744_": 4432, "\uae5c": 4433, "180": 4434, "\uc5b5\uc6d0\uc73c\ub85c_": 4435, "\uc774\ub807": 4436, "\uc6b1_": 4437, "\uc9c0\ub098_": 4438, "\ub0a8\ubd81_": 4439, "\ub300\uccb4_": 4440, "\uc5b8\uc81c_": 4441, "\uc553": 4442, "\uc5c6\uc5c8\ub358_": 4443, "\ud558\uc600\uace0_": 4444, "\uc900\ube44\ub97c_": 4445, "\uc5f0\ucd9c_": 4446, "\uc5f0\uad6c_": 4447, "\uafc0": 4448, "\ub4e4\uc5b4\uac00_": 4449, "\ubd80\ubd84\uc5d0_": 4450, "\uc704\uc6d0\ud68c\ub294_": 4451, "\ubbf8\uad6d\uc774_": 4452, "\ub7fc_": 4453, "\uc5e3": 4454, "\ud2b8\ub7fc": 4455, "erat": 4456, "\uff4d": 4457, "\ubd88\ub7ec_": 4458, "\uc5f0\uae30_": 4459, "\uc120\uc218\uc758_": 4460, "\uc544\uc774_": 4461, "MB": 4462, "\ub418\uc5c8\uace0_": 4463, "\uc5b5\uc6d0\uc758_": 4464, "\uacb0\uacfc\ub294_": 4465, "\uc529": 4466, "\ub837": 4467, "\ubcc0\ud654\uac00_": 4468, "f_": 4469, "\ub9cc\uc6d0\uc73c\ub85c_": 4470, "\ub258": 4471, "\ub0a8\ud3b8_": 4472, "\uc900\ube44_": 4473, "\ub20c": 4474, "\uc544\ubb34\ub9ac_": 4475, "\u0438": 4476, "\ucda9\uaca9\uc744_": 4477, "\ub9ac\uc544\uc758_": 4478, "\uc544\uc774\ud3f0_": 4479, "\uc5ec\ud589\uc744_": 4480, "\ub300\uc0c1\uc774_": 4481, "\uce69": 4482, "8000": 4483, "\ub987": 4484, "\ub918": 4485, "\ub300\ud45c\ud300\uc758_": 4486, "\ucd5c\ucd08_": 4487, "\uad6d\ud68c\uc5d0\uc11c_": 4488, "\uc0ac\ud68c\uc758_": 4489, "\ubb38\ud654_": 4490, "\ub370\uc774_": 4491, "900": 4492, "\uc4f4": 4493, "\ub9cc\ub4e4_": 4494, "\uc774\uc801_": 4495, "\uc717": 4496, "\ub3d9\ub8cc_": 4497, "\u674e": 4498, "2017": 4499, "BS_": 4500, "\ub9d9": 4501, "\u25cb": 4502, "\ubcf4\ub3c4\uc5d0_": 4503, "\ubc14\uc774\ub7ec": 4504, "\ud558\ub77c\ub294_": 4505, "\ud6d4": 4506, "6000": 4507, "\uc544\ubb34_": 4508, "\ud658\uacbd_": 4509, "\ud589\uc0ac_": 4510, "\uc2dc\uc124_": 4511, "\ud399": 4512, "\ubbf8\uad6d\uc740_": 4513, "\uac70\ub798_": 4514, "\uc19f": 4515, "\uc788\uc5b4\uc694": 4516, "\uc870\uc0ac\uc5d0\uc11c_": 4517, "\uca54": 4518, "\uc774\uc57c\uae30\uac00_": 4519, "\ub3d4": 4520, "\ub904": 4521, "\uc704\ubc18_": 4522, "\ubc1c\uc0dd_": 4523, "\uc774\uc720_": 4524, "\ud0e0": 4525, "\ubed0": 4526, "\ud50c\ub808\uc774\ub97c_": 4527, "\ub2f4\ub2f9_": 4528, "\ub3d9\uc0dd_": 4529, "\uc774\ub974\ub294_": 4530, "\uc9c4\ucd9c_": 4531, "\u5dde": 4532, "ran": 4533, "\uc774\uc804\uc5d0_": 4534, "\ub9e8\uc720_": 4535, "\ub9cc\uc6d0\uc5d0_": 4536, "\u338f": 4537, "\uc568": 4538, "\uc628\ub2e4": 4539, "\uac70\ub9ac\ub97c_": 4540, "\ub300\ud68c\ub97c_": 4541, "\ud50c\ub808\uc774_": 4542, "\ub2e4\uc774\uc5b4": 4543, "1970": 4544, "rig": 4545, "le_": 4546, "\uc5b4\uba38\ub2c8_": 4547, "\u5b78": 4548, "\uc0bc\uc131\uc740_": 4549, "\uc0b0\uc5c5_": 4550, "\ub0a8\uc131\uc774_": 4551, "\uc624\ub974\ub294_": 4552, "1999\ub144_": 4553, "\ubcf4\ub0b4\uace0_": 4554, "\ub9d8": 4555, "\uc5ec\uc131\uc740_": 4556, "\uacf0": 4557, "7000": 4558, "\uce6b": 4559, "\uc815\uaddc_": 4560, "\uc544\uc774\uac00_": 4561, "\uc7a5\uad00\uc774_": 4562, "la": 4563, "\uc790\ub8cc_": 4564, "\ube44\uc6a9_": 4565, "\uc84c\ub2e4\uace0_": 4566, "\ub9c8\uc744_": 4567, "\uc5bc\ub9c8": 4568, "\uc8fc\ubbfc_": 4569, "\uad50\uc218_": 4570, "\ud604\ub300_": 4571, "\ud3c9\uac00_": 4572, "\ub9cc\ub4e4\uace0_": 4573, "\uac74\uc124_": 4574, "\ud0e4": 4575, "\u6545": 4576, "\uae08\uc9c0_": 4577, "\uae30\uc0ac_": 4578, "\uae30\uc790\uac00_": 4579, "\ub2f7": 4580, "\uc5b5\uc6d0\uc5d0_": 4581, "\uc0f7": 4582, "\uc870\uc0ac\ud55c_": 4583, "\uc6d4\ub4dc_": 4584, "\ucc28\uc9c0\ud558\ub294_": 4585, "\ubd80\ubd84_": 4586, "\uc704\uc6d0_": 4587, "\uc62c\ub9ac\ub294_": 4588, "\ud1b0": 4589, "\uc84c\ub2e4\ub294_": 4590, "\ub084": 4591, "\ub2e8\uacc4_": 4592, "\u4eba": 4593, "\uc778\uae30\uac00_": 4594, "\ub6b1": 4595, "\u00b6": 4596, "\ud558\uae30\ub294_": 4597, "\ubc18\ub300\ub85c_": 4598, "\uc81c\uc791_": 4599, "\uc870\uc0ac\uc5d0_": 4600, "\uae40\uc815\uc740_": 4601, "\uc815\uc0c1_": 4602, "\ucd94\uc9c4_": 4603, "\uac70\ub9ac\uac00_": 4604, "\uae30\uc0ac\ub97c_": 4605, "\ub2ac": 4606, "\uc5c8\ub2e4\ub294_": 4607, "\ub9cc\uc6d0\uc758_": 4608, "\uc78e": 4609, "\uc694\uae08_": 4610, "\ub154": 4611, "\ub41c\ub2e4\uba74_": 4612, "\ubc29\uc2dd\uc744_": 4613, "\uc5b4\ub290": 4614, "\u570b": 4615, "\uc54a\uc558\ub358_": 4616, "\ud504\ub791": 4617, "\ub0af": 4618, "\uc8fc\uc758\ub97c_": 4619, "\uc5ec\ud589_": 4620, "\uc778\uc0ac_": 4621, "\ub72c": 4622, "\uc815\ubd80\uc5d0_": 4623, "\ub300\ud68c\uc5d0_": 4624, "\uc2e0\uace0\ub97c_": 4625, "\uc8fc\uc7a5\uc774_": 4626, "\uc0bc\uc131\uc804\uc790\uac00_": 4627, "\ub2ec\ub77c\ub294_": 4628, "\uc5c5\ubb34\ub97c_": 4629, "\uc218\uc785_": 4630, "\uff0e": 4631, "\uc068": 4632, "\uac1a": 4633, "\ud655\uc778_": 4634, "\ub300\ud45c\ud300\uc740_": 4635, "\uc54a\ub294\ub2e4\ub294_": 4636, "\ud48b": 4637, "\uc774\uc57c": 4638, "\uc774\ub04c\uc5b4": 4639, "\ub9cc\ub4e4\uc5b4\uc9c4_": 4640, "\ub3c5\uc77c\uc758_": 4641, "\uc9f1": 4642, "\uc778\uc2dd_": 4643, "\ubc38": 4644, "\u5b89": 4645, "\ud68c\uc0ac\uc758_": 4646, "\ub41c": 4647, "\ubb8c": 4648, "\ud6c4\ubcf4\ub97c_": 4649, "\ucc98\ub9ac_": 4650, "\u043d": 4651, "\ubcf4\ub0b4\ub294_": 4652, "\ub968": 4653, "\ubb49": 4654, "\uc218\ube44_": 4655, "\u6771": 4656, "\uc2e4\uc2dc\uac04_": 4657, "\uacf5\uc5f0_": 4658, "\ud0b4": 4659, "\u4e09": 4660, "\uad6c\uc870_": 4661, "\ub300\ud559\uc0dd": 4662, "\ud321": 4663, "\ub098\ub77c\ub294_": 4664, "\ud038": 4665, "\uc2e0\ubb38_": 4666, "\uae30\uac04\uc5d0_": 4667, "\uc911\uad6d\uc774_": 4668, "\ub9c8\uc74c_": 4669, "\uc911\uad6d\uc740_": 4670, "\uc2a4\ud2b8\ub9ac": 4671, "\ub4dc\ub77c": 4672, "\ucd95\uad6c\ub97c_": 4673, "\ud5dd": 4674, "\uba54\ub2ec_": 4675, "MC_": 4676, "\uc9d1\uc911_": 4677, "1\ub144\uc5d0_": 4678, "\ud0b7": 4679, "\ub0c4": 4680, "\ub540": 4681, "\ubbc0": 4682, "\uc9c0\uc9c0\ub97c_": 4683, "\uc54a\ub2e4\ub294_": 4684, "\ub098\uc774_": 4685, "\uc2dc\ud2f0_": 4686, "\uc232": 4687, "\uc2a4\ub9c8\ud2b8": 4688, "250": 4689, "\ub4dd\uc810\uc744_": 4690, "\ubc2d": 4691, "\ub9ac\uadf8\uc758_": 4692, "\uc608\uc0b0_": 4693, "\uc2dc\ub300\uc5d0_": 4694, "\ubcf4\uc5ec\uc8fc\uace0_": 4695, "\ub9ac\uc2a4\ud2f0": 4696, "\uc601\ud654\ub97c_": 4697, "\ubbf8\uad6d\uc5d0_": 4698, "\uc5ed\uc0ac\uc0c1_": 4699, "\ub550": 4700, "\u0435": 4701, "\uae0b": 4702, "\ud569\uc758_": 4703, "\uc18c\uc2dd\uc774_": 4704, "\uc815\ub3c4\uac00_": 4705, "\u339d": 4706, "\ud655\ub300_": 4707, "\uac1c\uc778\uc758_": 4708, "\uc0c1\ud488_": 4709, "\u738b": 4710, "\uc9c8\ubb38\uc744_": 4711, "\uae50": 4712, "\uc0ac\ub791_": 4713, "\uf981": 4714, "\uc8fc\uc778\uacf5_": 4715, "\ubc15\uadfc": 4716, "\uc7a5\uae30_": 4717, "\uca4c": 4718, "\ud504\ub791\uc2a4\uc758_": 4719, "\uc774\uc5b4\uc9c4_": 4720, "\ubb38\uc81c\uc758_": 4721, "\ubf40": 4722, "\uc774\ud6c4\uc5d0_": 4723, "\uadf8\ub9ac\uc2a4_": 4724, "\ubcf4\ub0b4_": 4725, "\ubd88\uac00\ub2a5": 4726, "\uacc1": 4727, "\ub808\uc774_": 4728, "\uac80\ud1a0_": 4729, "\ud558\ub098\uc774\ub2e4": 4730, "\uc8fc\ubaa9\uc744_": 4731, "\ud558\uc790\ub294_": 4732, "\ub010": 4733, "\uc544\ub4e4\uc774_": 4734, "\u5b50": 4735, "\ub178\ub798_": 4736, "\uad6d\uac00\uc758_": 4737, "\uc7a6": 4738, "1960": 4739, "\ub10c": 4740, "\ub0ab": 4741, "\uce5c\uad6c\uac00_": 4742, "\ubb47": 4743, "\uc9dc_": 4744, "\ub81b": 4745, "2014_": 4746, "\ub2d9": 4747, "\ud23c": 4748, "\u0440": 4749, "\ub284": 4750, "\ud799": 4751, "\uce84": 4752, "\uc601\uc0c1\uc774_": 4753, "\u2013": 4754, "\uc601\uc5b4_": 4755, "\uad90": 4756, "\uad6d\uc81c\uacf5\ud56d": 4757, "\uc2dc\ubbfc_": 4758, "\ub810": 4759, "\uff05": 4760, "\ubc43": 4761, "\ucc28\ub7c9\uc744_": 4762, "\uc870\uc815_": 4763, "\uc788\uc5c8\uace0": 4764, "\uc5c5\ubb34_": 4765, "\uae00\ub85c": 4766, "\uc704\uc6d0\ud68c\uac00_": 4767, "\uc131\uc7a5_": 4768, "\uc774\uba85": 4769, "9000": 4770, "\ubcf4\ub3c4_": 4771, "\uc5ed\uc0ac\ub97c_": 4772, "\ud68c\uc0ac\uac00_": 4773, "\uaf64": 4774, "\ub514\uc790\uc778_": 4775, "\uc0ac\uc9c4\uc740_": 4776, "\uc81c2\ucc28_": 4777, "\uc8fc\ub3c4_": 4778, "\uc798\ubabb_": 4779, "\ud22c\ud45c_": 4780, "\ubc1d\ud600_": 4781, "\ub188": 4782, "\uc870\uac74\uc744_": 4783, "\ub300\uc911_": 4784, "\uc0bc\uc131\uc804\uc790\uc758_": 4785, "\uc2dc\uc2a4": 4786, "\uc804\ubb38\uac00_": 4787, "\uc544\ub4e4\uc744_": 4788, "\uc678\uad6d_": 4789, "130": 4790, "\ud558\uae30\uc5d0_": 4791, "\uae65": 4792, "\ub2ff": 4793, "\ud230": 4794, "1500": 4795, "\uac15\ub0a8_": 4796, "\uc624\ud504_": 4797, "\ub4dc\ub77c\uc774": 4798, "\ubc1b\uc558\ub358_": 4799, "\uc0c1\ud669_": 4800, "\uc6e8\uc774_": 4801, "\uc2dc\uc791_": 4802, "\ub52a": 4803, "\uc74c\uc2dd\uc744_": 4804, "\uc758\uc0ac_": 4805, "\ud5d0": 4806, "\uc5ff": 4807, "\ub367\ubd99": 4808, "\uadf8\ub9ac_": 4809, "\ub300\ud654_": 4810, "\ubccd": 4811, "\u6734": 4812, "\ud558\ub098\ub294_": 4813, "\ud610\uc758_": 4814, "\u00e9": 4815, "160": 4816, "\ubc40": 4817, "\ud558\ub098\uac00_": 4818, "\uc544\uc774\ub4e4\uc774_": 4819, "SNS_": 4820, "\uc778\uac04\uc758_": 4821, "\uc598\uae30\ub2e4": 4822, "\ubcf4\ud638_": 4823, "\u300e": 4824, "\u300f": 4825, "\ubd80\ub974\ub294_": 4826, "\uc790\ub9ac\uac00_": 4827, "\uc788\uc5c8\ub2e4\uace0_": 4828, "\uc77c\ubd80\ub294_": 4829, "\ub77c\uc6b4_": 4830, "\ub300\ud45c\ub97c_": 4831, "\uc369": 4832, "\ubd84\uba85_": 4833, "ist": 4834, "\ub098\uc774\uac00_": 4835, "\ub46c": 4836, "\uc6b4\uc804_": 4837, "\uc0bc\uc131\uc758_": 4838, "\uc2e0\uace0_": 4839, "\uc62c\ub9ac\uace0_": 4840, "\ubd90": 4841, "\uc73c\ub85c\uc758_": 4842, "\uae4e": 4843, "\ud61c_": 4844, "\uc57c\uad6c\ub97c_": 4845, "\u5357": 4846, "\uc81c\uacf5_": 4847, "\uc774\uc6a9_": 4848, "\ud589\uc0ac\uc5d0_": 4849, "\ub9ac\uc2a4\ud2b8": 4850, "PC_": 4851, "\uc0c0": 4852, "\ud2b9\ubcc4_": 4853, "\ud22c\uc218\uac00_": 4854, "\uc2b9\ub9ac\ub85c_": 4855, "\ub057": 4856, "140": 4857, "is_": 4858, "\u97d3": 4859, "\ubd80\ubaa8_": 4860, "\ubc29\ubb38_": 4861, "\uac89": 4862, "\u9053": 4863, "\ucf67": 4864, "\uac31": 4865, "\ub534": 4866, "\uc870\uc9c1_": 4867, "\ubb58": 4868, "\uc911\uc2ec_": 4869, "1\ub9cc_": 4870, "ore": 4871, "\uad6d\ud68c\uc758\uc6d0_": 4872, "\ucd9c\uc804\ud574_": 4873, "\ud68c\uc0ac\ub97c_": 4874, "\uac13": 4875, "\ub9ac\uc544\ub294_": 4876, "\ubaa9\ud45c\ub97c_": 4877, "\uad00\ub9ac\ub97c_": 4878, "\ucbe4": 4879, "\uc2dc\ub3c4_": 4880, "\ub818": 4881, "\uc2a4\ub9c8\ud2b8_": 4882, "\uc5ed\uc0ac_": 4883, "\ubd84\uc57c_": 4884, "\uc816": 4885, "\uc804\uae30_": 4886, "\ub098\uc11c\ub294_": 4887, "\uc544\ub098": 4888, "\uc5d0\uc774\uc804": 4889, "\ud5db": 4890, "\u9ad8": 4891, "\ud504\ub9ac_": 4892, "\uc90c": 4893, "\uc774\ub984_": 4894, "110": 4895, "\ubd93": 4896, "\ube0c\ub77c\uc6b4": 4897, "\uc62c\ub9ac\uba70_": 4898, "\uc6ec": 4899, "\ud655\uc778\ud55c_": 4900, "\uc218\uc0ac\uc5d0_": 4901, "194": 4902, "\u8ecd": 4903, "\ub300\ubd80\ubd84\uc774_": 4904, "\ub9cc\ub098\ub294_": 4905, "\uc9c0\uc6d0\ud558\ub294_": 4906, "\uc774\ub978\ub2e4": 4907, "\ub294\ub2e4\ub294_": 4908, "\uafe8": 4909, "\uc548\uc804_": 4910, "\uc601\uc785_": 4911, "\uad50\uc218\uac00_": 4912, "\u339c": 4913, "\u5929": 4914, "\uc0ac\ud68c\uc5d0_": 4915, "\uc2a4\ud2b8\ub97c_": 4916, "\ub0b4\ub824_": 4917, "\uc5c4\ub9c8_": 4918, "\uc9c1\uc6d0\uc774_": 4919, "\ub9e8\uc720\uc758_": 4920, "\u2113": 4921, "\ubd88\uad6c\uc18d_": 4922, "\ud22c\uc790\ub97c_": 4923, "\ud0d4": 4924, "\ud241": 4925, "\uc5ec\uc131\uc744_": 4926, "\ub2e4\uc74c\uc744_": 4927, "\uc720\uc9c0\ud558\uace0_": 4928, "2012": 4929, "\ub730": 4930, "\uac70\ub9ac\ub294_": 4931, "\uc774\uc57c\uae30_": 4932, "\ud384": 4933, "\ub418\uc5b4\uc57c_": 4934, "\uac1c\uc120_": 4935, "\uc77c\ubd80\ub97c_": 4936, "\uc774\ub978_": 4937, "\ub0a8\uc131\uc740_": 4938, "\uc131\uacf5\uc744_": 4939, "\ud558\ub294\uc9c0_": 4940, "\uc788\ub2e4_": 4941, "\uad7f": 4942, "\uc0c1\uc2b9_": 4943, "\u5973": 4944, "\uc2dc\ub300\ub97c_": 4945, "\ud68c\uc0ac\ub294_": 4946, "\uc791\ud488_": 4947, "\uc598\uae30\uac00_": 4948, "\uacb0\uc2b9_": 4949, "\ub128": 4950, "1950": 4951, "\uad11\uace0\ub97c_": 4952, "\u57ce": 4953, "\uc633": 4954, "\uc774\uc5c8\uace0": 4955, "\ube0c\ub77c\uc774": 4956, "\uce21\uba74_": 4957, "\uc758\uc6d0\uc744_": 4958, "\ubd84\uc11d_": 4959, "\uc9c4\ub2e4\ub294_": 4960, "\u4e00": 4961, "\u24d2": 4962, "\ud140": 4963, "\uc54a\uc558\ub2e4\uace0_": 4964, "\ucc28\uc774\ub97c_": 4965, "\uc81c\uc548\uc744_": 4966, "2014": 4967, "\uc54a\uc558\ub2e4\ub294_": 4968, "\ud22c\uc218\ub85c_": 4969, "\ud1b5\ud569_": 4970, "\uc0bd": 4971, "\uc804\uc790\ub294_": 4972, "lan": 4973, "\uc694\uad6c\ub97c_": 4974, "\u524d": 4975, "\ucc28\ub7c9\uc774_": 4976, "\u5e73": 4977, "\uad70\uc0ac_": 4978, "\ub6f8": 4979, "\uc608\uc0c1_": 4980, "\uc788\uc5c8\uace0_": 4981, "\ucd95\uad6c\uc758_": 4982, "\uc704\uc6d0\ud68c\uc758_": 4983, "\ud0c0\uc784_": 4984, "\uc2f6\ub2e4\ub294_": 4985, "\uc704\uc6d0\ud68c\ub97c_": 4986, "\uace0\ub824_": 4987, "\uc5c5\uacc4\uc758_": 4988, "\uc9d9": 4989, "\uc0dd\uc0b0_": 4990, "\uc0ac\ud0dc_": 4991, "\u65b0": 4992, "\ub6f4": 4993, "\uc790\uaca9\uc744_": 4994, "\ub234": 4995, "\uce90\ub9ad\ud130_": 4996, "\ubb38\ud654\ub97c_": 4997, "\uacf5\uae09_": 4998, "\uad6c\ub2e8\uc758_": 4999, "\u0441": 5000, "\uc785\uc7a5\uc5d0\uc11c_": 5001, "\uc9c0\uc801\uc774\ub2e4": 5002, "\uacfc\uc815\uc5d0_": 5003, "\uad6c\uc18d_": 5004, "\uc218\ucd9c_": 5005, "\uc774\ub7ec": 5006, "\ud589\uc815_": 5007, "\ub0c5": 5008, "\ub5b4": 5009, "\ud544\uc694\ud558\ub2e4\ub294_": 5010, "\uc624\ub974\uace0_": 5011, "119": 5012, "2013": 5013, "\u7121": 5014, "\uc5b4\ub5bb": 5015, "\ub9ac\uadf8\ub97c_": 5016, "\uc774\ub2e4_": 5017, "\ud558\uc774_": 5018, "\uc815\ub3c4\ub294_": 5019, "\uce90\ub9ad\ud130\ub97c_": 5020, "3\ub144\uac04_": 5021, "\ufffd": 5022, "\uad6c\ub9e4_": 5023, "\uc790\uccb4\ub97c_": 5024, "\ub7ec\uc2dc\uc544\uc758_": 5025, "\ub098\ubb34_": 5026, "\u0432": 5027, "\uc785\uc7a5_": 5028, "\uad6d\ub0b4\uc5d0_": 5029, "\u261e": 5030, "\ud30d": 5031, "\ud558\uace0\ub294_": 5032, "\uc9c0\ud558_": 5033, "\u6cd5": 5034, "\ud69f": 5035, "\uc9da": 5036, "\ud018": 5037, "\ubc1c\uc804\uc744_": 5038, "\ub418\uc5c8\ub358_": 5039, "\uc790\ub140_": 5040, "\ubd05": 5041, "\uc774\ub3d9_": 5042, "\uc788\uc5c8\ub2e4\ub294_": 5043, "\ub098\uc774\uc5d0_": 5044, "\ud68c\uc0ac\uc5d0_": 5045, "\uad6c\ub2e8\uc740_": 5046, "\uc704\uce58\ub97c_": 5047, "\ub0b4\uc6a9_": 5048, "\ud760": 5049, "\ub109": 5050, "\ud588\ub2e4\uba74_": 5051, "\uc250": 5052, "170": 5053, "3\ub144\uc5d0_": 5054, "\ub79c\ub4dc\ub294_": 5055, "\uc9c0\ud558\uace0_": 5056, "\uc090": 5057, "\ubb34\ud55c": 5058, "\uac15\ud654_": 5059, "\ucf54\uce58\ub294_": 5060, "\uc138\uacc4\uc758_": 5061, "\ucfe4": 5062, "\u3002": 5063, "\uc2f9": 5064, "\ubcf8\uaca9_": 5065, "\u7530": 5066, "\uc2a4\ud2b8\ub85c_": 5067, "\uc778\uac04_": 5068, "\ub3d9\ubb3c_": 5069, "\ud004": 5070, "\uc290": 5071, "\uc2dc\uc124\uc744_": 5072, "est": 5073, "\u0627": 5074, "\uc8fc\uc7a5_": 5075, "\uc0bc\uc131\uc804\uc790": 5076, "\ud759": 5077, "\ub300\ud559\uc0dd_": 5078, "2011": 5079, "\uc601\uc785\uc744_": 5080, "\ub1e8": 5081, "\uc18c\uc7ac_": 5082, "\ub729": 5083, "\uc0bc\uc131\uc774_": 5084, "\ud3c9\uac00\uac00_": 5085, "\ud54f": 5086, "\uccad\ub144_": 5087, "\uc911\uad6d\uc5d0_": 5088, "\ub7ff": 5089, "\u043b": 5090, "\uc131\uc7a5\uc744_": 5091, "\uc5f0\uad6c\ub97c_": 5092, "\ud1b5\ud654_": 5093, "\ubcf4\ub3c4\uac00_": 5094, "\ud574\uc8fc\uace0_": 5095, "\uad6c\ub2e8\uc774_": 5096, "\uc544\uc774\uc758_": 5097, "\uad50\ud1b5_": 5098, "\uac10\uc0ac_": 5099, "\ud588\ub2e4_": 5100, "\uad6d\uac00\uac00_": 5101, "\u6821": 5102, "\uc608\uc0b0\uc744_": 5103, "\uc2b9\ub9ac_": 5104, "\uff1c": 5105, "\uc558\ub2e4\uace0_": 5106, "OS_": 5107, "\uba38\ub2c8_": 5108, "\uc2dc\uc2a4_": 5109, "\ub7b4": 5110, "\uc575": 5111, "\uc778\uac00_": 5112, "2\ub144\uc5d0_": 5113, "\u5ddd": 5114, "\ub9ac\uc2a4\ud2b8_": 5115, "\ubc1c\uc5b8_": 5116, "\ud06c\ub85c_": 5117, "\ub053": 5118, "\ub09a": 5119, "4\ub144\uc5d0_": 5120, "\uae30\uc790\ub294_": 5121, "\uc870\uc0ac\uac00_": 5122, "\uc2dc\ub9ac\uc544_": 5123, "\uac1c\ubc1c\uc744_": 5124, "\uc274": 5125, "\ub17c\uc758_": 5126, "\ud587": 5127, "\u4e8b": 5128, "\ud558\uae30\uac00_": 5129, "\uad6d\ud68c\uc758\uc6d0": 5130, "\uc600\ub2e4\uace0_": 5131, "\uae30\ub300_": 5132, "\uc96c": 5133, "\u00b0": 5134, "2\ub8e8_": 5135, "\uacb0\uc815_": 5136, "\ubcf4\ub3c4\ub97c_": 5137, "\uc790\ub3d9_": 5138, "\u043a": 5139, "\u30fc": 5140, "\uc885\ud569_": 5141, "\uacbd\uc601_": 5142, "2016_": 5143, "\uc5b5\uc6d0\uc774_": 5144, "\uc815\ubd80\ub97c_": 5145, "\ub9d1": 5146, "\ub9cc\uc6d0\uc774_": 5147, "2\ub144\uac04_": 5148, "\ud55c\ub2e4_": 5149, "\ud3ec\ud568_": 5150, "\uccb8": 5151, "\ucf55": 5152, "\uad00\uc2ec_": 5153, "con": 5154, "\ubbf8\ub2c8_": 5155, "\ub9f5": 5156, "\u00d7": 5157, "\ub9f7": 5158, "\uc587": 5159, "\uc815\uc2e0\uc744_": 5160, "\uac74\uac15_": 5161, "\ucde8\uc5c5_": 5162, "\uad7d": 5163, "\uce58\ub8cc_": 5164, "\ub3c5\uc77c\uc5b4": 5165, "\uc774\uc5c8\uace0_": 5166, "5\ub144\uac04_": 5167, "\ub3c4\uc785_": 5168, "\uc464": 5169, "\uacfc\uc815_": 5170, "\ucc3e\uc544\uac00_": 5171, "\ub0a8\uc790\uac00_": 5172, "\uac94": 5173, "\ubc14\ub77c\ub294_": 5174, "at_": 5175, "\u516c": 5176, "\ud569\uc758\ub97c_": 5177, "\uc815\ub3c4\ub97c_": 5178, "\uc704\uc6d0\ud68c\uc5d0_": 5179, "\ud544\uc694\ud558\ub2e4\uace0_": 5180, "\uc288\ud37c_": 5181, "\uc678\uad50_": 5182, "\uac00\uc9c0\ub294_": 5183, "\uc774\uc0ac_": 5184, "\ucc98\ubc8c_": 5185, "\ub300\uc0c1\uc744_": 5186, "\uc81c\uc2dc\ud588\ub2e4": 5187, "\uc815\ub2f9_": 5188, "\uc804\uccb4\ub97c_": 5189, "\ubfd4": 5190, "\ud658\uacbd\uc744_": 5191, "\uc2a4\ucf54_": 5192, "\uc774\uc5c8\ub2e4\uace0_": 5193, "\u6d77": 5194, "\uae30\uad00\uc774_": 5195, "\uc77c\ubd80\uac00_": 5196, "\ud68c\uc7a5\uc744_": 5197, "ot_": 5198, "\ud558\uace0\ub3c4_": 5199, "\ub194": 5200, "\ubd88\uad6c": 5201, "\uc218\ube44\ub97c_": 5202, "1999": 5203, "\uae30\uc790\uc758_": 5204, "2012_": 5205, "\u6c0f": 5206, "\uc2dc\ud589_": 5207, "\ud4e8": 5208, "res": 5209, "\uc99d\uac00_": 5210, "\ud64d\ubcf4_": 5211, "\ub291": 5212, "\uacf5\uac04_": 5213, "\uacfc\uc815\uc774_": 5214, "\ucc28\uc9c0\ud558\uace0_": 5215, "\ucd9c\uc5f0\uc744_": 5216, "\uc20d": 5217, "\ub300\ud45c\ud300\uc774_": 5218, "\uc558\ub2e4\ub294_": 5219, "\ud544\uc694_": 5220, "\ud558\ub098\ub97c_": 5221, "\ud64b": 5222, "\ucc54\ud53c\uc5b8_": 5223, "\uc53b": 5224, "\ub0a8\uc131\uc758_": 5225, "\ud798\ub4e4_": 5226, "\uc19c": 5227, "\uc791\uc5c5_": 5228, "\ucb49": 5229, "\uca0c": 5230, "\u6b63": 5231, "\uacbd\uc81c\uac00_": 5232, "\uc601\uc0c1\uc740_": 5233, "\uc131\uacf5_": 5234, "\ud720": 5235, "\ud610": 5236, "\uc758\uc6d0\uacfc_": 5237, "\ub3c5\ub9bd_": 5238, "\uac70\ub9ac\uc5d0_": 5239, "\uc218\uc0c1_": 5240, "\ubbf8\ub798_": 5241, "\ub515": 5242, "\ud611\ub825_": 5243, "\ud611\uc758\ub97c_": 5244, "\uc544\ub4e4\uc758_": 5245, "\uc0ac\ud68c\ub97c_": 5246, "\u0442": 5247, "\uc465": 5248, "\uac74\uac15\ud55c_": 5249, "\uadfc\ubb34_": 5250, "\uc218\uc0ac\uac00_": 5251, "\uc138\uacc4\ub97c_": 5252, "\uc218\uc11d_": 5253, "\uac00\uc6b4_": 5254, "\uc694\uae08\uc744_": 5255, "\u306e": 5256, "\u7537": 5257, "\ub458\ub7ec_": 5258, "\u884c": 5259, "11_": 5260, "\ubaa8\ub974\uace0_": 5261, "\ud22c\ud45c\ub97c_": 5262, "\ub93c": 5263, "\uc0ac\ud68c\uac00_": 5264, "\uaf42": 5265, "\ubbf8\uad6d\uc744_": 5266, "\uac15\uc6d0_": 5267, "\ub72f": 5268, "\uc870\uce58\uac00_": 5269, "\uc544\uc774\uc720": 5270, "\u4e0a": 5271, "\ubc1b\uc558\ub2e4\uace0_": 5272, "\u660e": 5273, "\uc2dc\ub300\uac00_": 5274, "\ud31f": 5275, "\ud2b8\ub9ac_": 5276, "\uc9c0\uc6d0\uc774_": 5277, "\ud0a4\uc2a4_": 5278, "\ub79c\ub4dc\ub97c_": 5279, "\ubc14\uc774_": 5280, "\uc3df": 5281, "\ud648\ud398\uc774\uc9c0_": 5282, "\uc544\ub0b4\uac00_": 5283, "\ucc28\ubcc4_": 5284, "\uae30\ubc18_": 5285, "\uad6d\ud68c\uc5d0_": 5286, "\uc544\ub0b4\ub294_": 5287, "350": 5288, "\u25cf": 5289, "\uac1c\uc815_": 5290, "\ubc0c": 5291, "\u2605": 5292, "\ubcb3": 5293, "\u99c5": 5294, "\uc758\uc0ac\uac00_": 5295, "\uc178": 5296, "\uaf80": 5297, "\uc54a\ub294\ub2e4\uace0_": 5298, "\ub17c\uc758\ub97c_": 5299, "\ud310\ub2e8\uc744_": 5300, "\uacfc\ud559_": 5301, "1\ub144\uac04_": 5302, "col": 5303, "\ud1b5\uacfc_": 5304, "\uaf2d": 5305, "\ud3ab": 5306, "\uc548\uc815\uc744_": 5307, "\uc788\ub2e4\uac00_": 5308, "\uc6b0\uc8fc_": 5309, "\uacbd\uc81c\uc758_": 5310, "\uad88": 5311, "\uac00\uc785_": 5312, "\uad75": 5313, "\u30fb": 5314, "\uc54a\ub2e4\uace0_": 5315, "\uc600\ub2e4\ub294_": 5316, "\u82f1": 5317, "\uc870\uce58_": 5318, "\uce5c\uad6c\ub97c_": 5319, "\uc804\ud574_": 5320, "\uc815\uce58\ub97c_": 5321, "\ub178\ucd9c_": 5322, "\ub4f1\ub85d_": 5323, "\uff0c": 5324, "\ubed7": 5325, "\uc120\uc815_": 5326, "\uc6b0\ub824_": 5327, "\ud234": 5328, "\ucc38\uc5ec_": 5329, "\ub2e6": 5330, "\uc0ac\uacfc_": 5331, "\ubd84\uc591_": 5332, "\uc18c\ube44_": 5333, "\u6709": 5334, "\uc120\ubb3c\uc744_": 5335, "\u9751": 5336, "\uc911\uad6d\uc744_": 5337, "\u91ce": 5338, "\uaf41": 5339, "\u9577": 5340, "\ub2c8\uc544\uc8fc_": 5341, "\ud611\uc758_": 5342, "\ub0a8\uc790\uc758_": 5343, "\ud558\uae30\ub97c_": 5344, "\u7fa9": 5345, "\uc2a4\ud2b8\ub294_": 5346, "\u751f": 5347, "\uc774\ub8e8\uc5b4\uc9c4_": 5348, "\ub367": 5349, "\ud589\uc0ac\uac00_": 5350, "\uc878\uc5c5_": 5351, "\ubc14\ub2e4_": 5352, "\u672c": 5353, "\u897f": 5354, "\uba54\uc774\uc800_": 5355, "\u2460": 5356, "128": 5357, "\uc2b4": 5358, "\uc0c1\ub300\ub97c_": 5359, "\ucd5c\uc800_": 5360, "\ub192\uc544_": 5361, "\ub77c\uc774_": 5362, "\uc790\uc5f0_": 5363, "\uc601\uc5c5_": 5364, "\uc0dd\uac01_": 5365, "\ubba4\uc9c1_": 5366, "\ub098\uac00\uace0_": 5367, "\ubc1c\ud45c\ub97c_": 5368, "\uc778\uc2dd\uc774_": 5369, "\ud1b5\ud654\ub97c_": 5370, "\uc8fc\uc7a5\uc5d0_": 5371, "\uc911\ub2e8_": 5372, "1945\ub144_": 5373, "\uc9c0\ubc29\ubc95": 5374, "\uc2dc\uccad_": 5375, "\uc900\ube44\uac00_": 5376, "\uad50\uc218\uc758_": 5377, "\ub838\ub2e4\ub294_": 5378, "\ud330": 5379, "\uac14\ub2e4\uac00_": 5380, "\uc653": 5381, "\uc9c1\uc6d0\uc740_": 5382, "\ud604\uc2e4\uc744_": 5383, "\ud07c": 5384, "\ucc22": 5385, "\uc0c1\ub2f9\uc758_": 5386, "\ubcb5": 5387, "\uc5f0\uae30\uc5d0_": 5388, "\uc9c0\ud0a4\ub294_": 5389, "\u5bb6": 5390, "\ubcc0\ud654_": 5391, "2017_": 5392, "\uaddc\ubaa8\ub97c_": 5393, "\u5bfa": 5394, "\uc2dc\ub9ac\uc544": 5395, "\ub4dc\ub9ac\uace0_": 5396, "\uac07": 5397, "\uc5b9": 5398, "\ub0b4\ub193\uace0_": 5399, "\ucc98\ub9ac\ub97c_": 5400, "15\ub144_": 5401, "\uc5bd": 5402, "\uc218\uc900_": 5403, "\uc7ac\ud310_": 5404, "\uae00\ub85c_": 5405, "\uacb0\uc815\uc5d0_": 5406, "\ub985": 5407, "\ucc45\uc784_": 5408, "\ub838\ub2e4\uace0_": 5409, "ast": 5410, "\uc804\uc790\uac00_": 5411, "\ub294\ub2e4\uace0_": 5412, "\ub418\uc5c8\ub2e4\uace0_": 5413, "\ub77c\uc774\uc5b4": 5414, "\uc790\ub9ac\ub294_": 5415, "\ud0ec": 5416, "\uc124\uba85\uc744_": 5417, "\uc2dd\ud488_": 5418, "\u66f8": 5419, "2013_": 5420, "\ubc29\uc2dd\uc774_": 5421, "\ubc1c\uc804_": 5422, "re_": 5423, "\ub4e4\uc5b4\uc11c_": 5424, "\uc654\ub2e4\ub294_": 5425, "\uce74\ub4dc\ub85c_": 5426, "\uc790\uc720_": 5427, "\uae30\ub300\uac00_": 5428, "\ub2e8\uc21c_": 5429, "\uc5f0\uae30\uac00_": 5430, "\ub178\ub825\uc774_": 5431, "\uacb0\uc815\uc774_": 5432, "ram": 5433, "\uc774\uc0c1\uc740_": 5434, "\uc804\ud658_": 5435, "\ucf70": 5436, "\uae30\uc0ac\uac00_": 5437, "\uc784\ub300_": 5438, "\uc2e0\uccad_": 5439, "\ubd88\uac00\ub2a5\ud55c_": 5440, "\ubbac": 5441, "\uad6d\uac00\ub97c_": 5442, "\uc704\uce58_": 5443, "\uc778\uc2dd\uc744_": 5444, "\uc52c": 5445, "\ube44\ub09c_": 5446, "\u6b66": 5447, "\u00e1": 5448, "\uc0ac\ud68c\uc5d0\uc11c_": 5449, "oun": 5450, "\uc9c0\ub3c4\ub97c_": 5451, "2\ub9cc_": 5452, "\ub807": 5453, "\uae30\ub300\ud55c\ub2e4": 5454, "\ub300\ud68c\uac00_": 5455, "\uae30\uc5c5\uc744_": 5456, "\ud3ed\ubc1c_": 5457, "\uc548\uc804\uc744_": 5458, "\ud50c\ub808\uc774\uc5b4": 5459, "\uc648": 5460, "\uc804\ud654\uac00_": 5461, "ich": 5462, "ith": 5463, "\ub77c\uc774\ub098_": 5464, "\u5143": 5465, "\u6210": 5466, "\uace0\uc6a9_": 5467, "\uc120\uc5b8_": 5468, "\uad6c\uc131_": 5469, "\ub514\uc624\ub97c_": 5470, "\ub9b0\ub2e4\ub294_": 5471, "\ub3c4\ub85c\ub97c_": 5472, "\uc9c0\uae09_": 5473, "\u5b97": 5474, "\u2461": 5475, "\uacfc\uac70\uc758_": 5476, "\uc11c\ube44\uc2a4\uac00_": 5477, "\ud38c": 5478, "360": 5479, "\u5cf6": 5480, "\u795e": 5481, "\uc90d": 5482, "\ubcc0\uacbd_": 5483, "\ubc1c\ub9e4_": 5484, "\uc0f5": 5485, "\ub300\ud45c\ud300\uc744_": 5486, "\ubc0b": 5487, "\u3010": 5488, "\ub300\ud68c\ub294_": 5489, "\uc5f0\uc608_": 5490, "\u3011": 5491, "\uc5f0\uad6c\uc5d0_": 5492, "\ud6d7": 5493, "\ucf54\uce58_": 5494, "\uacbd\uae30\uc758_": 5495, "\ud798\ub4e4\uc5b4": 5496, "\uc2dc\uc2a4\ucf54_": 5497, "\ub1a8": 5498, "\ucc28\uc774\ub294_": 5499, "\uc7a5\uad00\uc744_": 5500, "\uacb0\uc815\ud55c_": 5501, "\uc9c0\ud558\ub294_": 5502, "as_": 5503, "\ud68c\uc7a5\uacfc_": 5504, "5\ub144\uc5d0_": 5505, "\uc9c0\ub098\uc9c0_": 5506, "\ubfdc": 5507, "\uc124\uce58_": 5508, "\uc410": 5509, "\ub9cc\uc6d0\uc5d0\uc11c_": 5510, "\u4eac": 5511, "\uc120\ubb3c_": 5512, "\ubcf5\uc9c0_": 5513, "\uc0c1\ub300\uac00_": 5514, "\uc5ec\uae30_": 5515, "\uc8fc\uc7a5\uc740_": 5516, "\uae31": 5517, "\uc74c\uc2dd_": 5518, "\uc2a4\ud06c_": 5519, "12\ub144_": 5520, "\uc804\uc790\uc758_": 5521, "\uc0bf": 5522, "\ud68c\ubcf5_": 5523, "\uc774\uc57c\uae30\ub294_": 5524, "\uc774\uc804\uc758_": 5525, "\uc788\uc5b4\ub3c4_": 5526, "\uad00\ub9ac\uc5d0_": 5527, "\ucbd4": 5528, "\ub85c\uc774_": 5529, "\uc60c": 5530, "\uc18c\ub140_": 5531, "\ub3c4\uc2dc\uc758_": 5532, "1940": 5533, "\uc801\uc6a9_": 5534, "\uc654\ub2e4\uace0_": 5535, "\u5730": 5536, "\ub0e5_": 5537, "\ub098\uba38": 5538, "\uc5b4\ub514_": 5539, "\uad6d\ud68c\uc758": 5540, "\uc544\uc774\ub4e4_": 5541, "\u77f3": 5542, "1200": 5543, "com_": 5544, "\ud604\uc9c0\uc5d0\uc11c_": 5545, "\uafc7": 5546, "\uc544\uc774\ub4e4\uc758_": 5547, "\ubcf4\uace0\ub97c_": 5548, "\uac1c\uc120\uc744_": 5549, "\ud1b5\uc2e0\uc774_": 5550, "\u592a": 5551, "\uc131\uaca9\uc744_": 5552, "\uc62c\ud574\ub3c4_": 5553, "\uc6b0\ub9ac\ub97c_": 5554, "\ubb38\ud654\uac00_": 5555, "\ud65c\uc57d_": 5556, "\uc694\uad6c\uc5d0_": 5557, "\uc7a5\uba74_": 5558, "\u539f": 5559, "\u0101": 5560, "\uad6d\uc815_": 5561, "\ubcf6": 5562, "2011_": 5563, "\uc870\uc120\uc758_": 5564, "\uc813": 5565, "\uc9c1\uc7a5_": 5566, "\ub79c\ub4dc\uac00_": 5567, "\uc601\uc5c5\uc744_": 5568, "\uacbd\uc81c\ub97c_": 5569, "\uc774\uc5c8\ub2e4\ub294_": 5570, "\uc9c0\uc801\uc744_": 5571, "\ud30c\uc774_": 5572, "\uae0d": 5573, "\uce74\ub4dc\ub294_": 5574, "\u321c": 5575, "\uc5ce": 5576, "\u2153": 5577, "\ub4c8": 5578, "\uc704\uc6d0\ud68c\uc5d0\uc11c_": 5579, "\uc778\uc0ac\uc774": 5580, "\uac04\ub2e4\ub294_": 5581, "\u03b1": 5582, "\uc544\uc2dc": 5583, "\ube61": 5584, "\uc2dc\uc2a4\ucf54": 5585, "\uc815\uc0c1\uc5d0_": 5586, "\ub9ac\uc544\uac00_": 5587, "\ubcf4\ud638\ub97c_": 5588, "\u30f3": 5589, "\ube8f": 5590, "\ud30c\uc774\uc5b4": 5591, "\ud68c\uc0ac\uc5d0\uc11c_": 5592, "\uc7a3": 5593, "\uc218\uc694_": 5594, "\uc0c1\ub2f9_": 5595, "\ubca0\uc774_": 5596, "\u5149": 5597, "\uc804\uad6d\uc758_": 5598, "rin": 5599, "\uc720\ub9ac_": 5600, "\uaecd": 5601, "\uc758\ubbf8_": 5602, "\uac00\uc815_": 5603, "\uc870\uc0ac\ub294_": 5604, "2500": 5605, "\ub51b": 5606, "\uc634": 5607, "\uc704\uc6d0\uc774_": 5608, "\uc804\ud1b5_": 5609, "\ub0ac\ub2e4\uace0_": 5610, "\uce74\uba54": 5611, "\u2154": 5612, "IS_": 5613, "\ud558\ub098\ub3c4_": 5614, "\u4e16": 5615, "\uc720\uc9c0\ud558\ub294_": 5616, "\ubb34\ud55c_": 5617, "\ub300\uc0c1\uc5d0_": 5618, "\ub9ce\ub2e4\ub294_": 5619, "\uaed1": 5620, "\uae30\ub300\uc5d0_": 5621, "\uc2e3": 5622, "\uac00\uc9c0\ub97c_": 5623, "\ub0a8\uc544\ud504\ub9ac": 5624, "\ucc28\ub7c9\uc740_": 5625, "\u2665": 5626, "\u2191": 5627, "\ud655\uc815_": 5628, "\ubc30\uce58_": 5629, "\ub0b1": 5630, "\ubc1b\uc558\ub2e4\ub294_": 5631, "\uf9e1": 5632, "\ubdd4": 5633, "\ud2b8\ub808\uc774\ub2dd": 5634, "\ubd88\uac00\ub2a5\ud558\ub2e4": 5635, "125": 5636, "\ucf65": 5637, "\ud649": 5638, "\uc370": 5639, "\ub9cc\ub098\uace0_": 5640, "\u9662": 5641, "\ube54": 5642, "\uc2dc\uac01_": 5643, "\uc6b4\uc804\uc744_": 5644, "\uc785\uc7a5\uc774_": 5645, "\uc790\uc2e0_": 5646, "\ud479": 5647, "\uc62c\ub9bc": 5648, "\u4e0d": 5649, "\uba67": 5650, "\ucd2c\uc601\uc774_": 5651, "\uc694\uad6c_": 5652, "\ucc1c": 5653, "\ud611\ub825\uc744_": 5654, "\uc778\uc218_": 5655, "\uc0ec": 5656, "\uac00\ub9ac\uc9c0_": 5657, "\uc774\ub04c\uc5b4_": 5658, "\ucabc": 5659, "\ud0ed": 5660, "\u5e9c": 5661, "\uc870\uc9c1\uc744_": 5662, "\uc124\ub9bd_": 5663, "\uc758\ub8cc_": 5664, "\ucf54\uce58\uac00_": 5665, "\uc5f0\uae30\uc790": 5666, "ht_": 5667, "\uc81c\uc870\uc0ac": 5668, "\u24dd": 5669, "\uc544\uc774\ub294_": 5670, "\u967d": 5671, "\u5fc3": 5672, "\uc7a5\uc560_": 5673, "\ub4ed": 5674, "\ub625": 5675, "\uc900\ub2e4\ub294_": 5676, "\u6c5f": 5677, "\uc2b9\ub9ac\uc5d0_": 5678, "\u90fd": 5679, "\uc720\ud1b5_": 5680, "\ub4f1\uc7a5_": 5681, "\uc9c0\uc6d0\uc740_": 5682, "\ub3c4\uc804_": 5683, "14\ub144_": 5684, "\uc501": 5685, "\u0644": 5686, "\uc778\ubb3c\uc774_": 5687, "\uc218\uc785\uc744_": 5688, "\uaff0": 5689, "\ubbf8\ub514_": 5690, "\ub310": 5691, "\ubb38\uc7ac": 5692, "\uad6d\ud68c\uac00_": 5693, "\ub25c": 5694, "\u304d": 5695, "\uc2a4\ud2b8\ub9ac\uc544": 5696, "\uc870\uc815\uc744_": 5697, "16_": 5698, "\uc2fc": 5699, "\ub274\uc2a4\uc640_": 5700, "\ud6a8\uacfc\ub294_": 5701, "\uc774\ud574_": 5702, "\ub86f": 5703, "\uc9c0\uad6c\uc758_": 5704, "\uc0b4\uc544_": 5705, "\ub138": 5706, "\ub192\ub2e4\ub294_": 5707, "\ud3ec\ub974_": 5708, "\u5c0f": 5709, "ron": 5710, "\ubd80\uc9c4\uc744_": 5711, "\uce5c\uad6c\uc758_": 5712, "\u6c34": 5713, "st_": 5714, "\ucc38\uac00_": 5715, "\uac71\uc815\uc774_": 5716, "\ub300\ubd80\ubd84\uc744_": 5717, "\ub4dd\uc810\uc5d0_": 5718, "\uc954": 5719, "\ucc4c": 5720, "\uc9c1\uc6d0\uc758_": 5721, "\ub9ac\uadf8\ub294_": 5722, "\u6240": 5723, "\ud558\uae30\uc5d0\ub294_": 5724, "\ubc29\ubc95_": 5725, "\u3044": 5726, "\uc774\uc801\uc744_": 5727, "\uc624\ub978\ub2e4": 5728, "\ubabb\ud588\ub2e4\ub294_": 5729, "\uac00\uc9c0\uac00_": 5730, "\ubcf4\uc720_": 5731, "\uc13c\ud130\ub97c_": 5732, "\ubcf4\uc774\uae30\ub3c4_": 5733, "2019": 5734, "145": 5735, "\ucc3c": 5736, "la_": 5737, "\uac74\ubb3c\uc744_": 5738, "\uc218\uc11d\uc740_": 5739, "\uc9c1\uc6d0\uc744_": 5740, "\ubc1c\uc804\uc5d0_": 5741, "\uc2b9\ub9ac\uc758_": 5742, "\uc544\uc774\ub4e4\uc740_": 5743, "\ub8fd": 5744, "\u6703": 5745, "\ub214": 5746, "\ub300\uc0c1\uc740_": 5747, "\uc2a4\ud2b8\ub9ac\uc544_": 5748, "\uc774\uc0ac\ub294_": 5749, "\ud6a8\uacfc_": 5750, "\uc0c1\ub300\uc758_": 5751, "\uaf49": 5752, "\uc2dc\uac04\uc758_": 5753, "\ub764": 5754, "\uc0ac\uc774\ub2e4": 5755, "\uc0ac\uc774\uac00_": 5756, "115": 5757, "\u0434": 5758, "\ucde8\uc7ac_": 5759, "\ucd9c\uc804\uc744_": 5760, "\ubc30\uacbd\uc744_": 5761, "MB_": 5762, "\ubc49": 5763, "\ucd9c\uc804\ud588\ub2e4": 5764, "\uc5ec\uc790\uac00_": 5765, "\uc18c\ud504\ud2b8_": 5766, "eri": 5767, "\uc2f6\ub2e4\uace0_": 5768, "\uad6d\uac00\uc815\ubcf4": 5769, "\ub298\uc5b4_": 5770, "\uac1c\ucd5c_": 5771, "\uc720\uc9c0_": 5772, "2012\ub144": 5773, "\ub3c4\uc804\uc744_": 5774, "\ube44\ud310_": 5775, "\ud558\ub77d_": 5776, "\u5fb7": 5777, "\u4e3b": 5778, "\uc88b\uc544_": 5779, "\uc778\ubb3c_": 5780, "\u541b": 5781, "\ud50c\ub808\uc774\uac00_": 5782, "\ub754": 5783, "\uc601\ud654\uac00_": 5784, "ari": 5785, "ric": 5786, "\uace0\ubbfc_": 5787, "\uac10\uc0ac\uc758_": 5788, "\uc2dc\ub300\ub294_": 5789, "\ub748": 5790, "\uc0c1\ub300\ucc45": 5791, "\ud3bc\uccd0_": 5792, "\uff1e": 5793, "SN": 5794, "2011\ub144": 5795, "\uc5c5\uccb4\ub97c_": 5796, "\ucd9c\uc2dc\ub97c_": 5797, "2013\ub144": 5798, "\u90e8": 5799, "\ubea8": 5800, "\uc9c4\ud589\uc744_": 5801, "\ub530\ub974\uace0_": 5802, "\uc0ac\uc774\ub97c_": 5803, "12_": 5804, "\u203b": 5805, "\ud754\ub4e4\uc5c8\ub2e4": 5806, "\ud604\uc2e4_": 5807, "\ub9c8\uc774_": 5808, "\uc9c0\uc9c0\ud558\ub294_": 5809, "\uc778\uc815_": 5810, "\u7e23": 5811, "\ub2ec\ub77c_": 5812, "\uc584": 5813, "\uc870\uae08\uc744_": 5814, "\uc788\uace0\uc694": 5815, "\uc0ac\uace0\ub294_": 5816, "\uc0bc\uc131\uc804\uc790\uc640_": 5817, "\ub2c8\uc544\uc758_": 5818, "\ud798\ub4e4\uc5c8\ub2e4": 5819, "\uc2a4\ub9c8": 5820, "\u76f8": 5821, "\ud06c\ub2e4\ub294_": 5822, "\u6027": 5823, "450": 5824, "\uc778\uc815\ud55c_": 5825, "112": 5826, "\uc0bc\uc131\uacfc_": 5827, "4\ub144\uac04_": 5828, "\uc57c\uad6c\uc758_": 5829, "175": 5830, "\ub294\ub2e4\uba74_": 5831, "\uc544\ub4e4\ub85c_": 5832, "155": 5833, "\u9580": 5834, "ath": 5835, "\u314b": 5836, "\ub9d0\ud588\ub2e4\uace0_": 5837, "\ub178\ud2b8_": 5838, "\uac15\ud654\ub97c_": 5839, "\u8005": 5840, "\ud22c\uc218\ub97c_": 5841, "\uc778\uc0dd_": 5842, "\uac70\ubd80_": 5843, "\ubbfc\uc8fc_": 5844, "135": 5845, "\u90e1": 5846, "\uc54a\ub294\ub2e4\uba74_": 5847, "\ubb34\ub9ac\uac00_": 5848, "\u7b49": 5849, "\u653f": 5850, "\ucc54": 5851, "19\ub144_": 5852, "\uae30\uc18c_": 5853, "\uc6b4\ub3d9\uc758_": 5854, "\ubb44": 5855, "\uc5c6\uc5c8\ub2e4\uace0_": 5856, "\uac10\uc0ac\ub97c_": 5857, "\u4f7f": 5858, "am_": 5859, "\uce74\ub4dc\uac00_": 5860, "\uc678\uad50\ud1b5": 5861, "\ubc29\uc2dd_": 5862, "\uc815\uc2e0_": 5863, "\uc544\uc2dc\uc544\ub098": 5864, "\u2103": 5865, "\u5e02": 5866, "\uc81d": 5867, "\ub300\uc0c1\uc5d0\uc11c_": 5868, "\uceeb": 5869, "1600": 5870, "\ub460": 5871, "\ubd80\uc9c4_": 5872, "\uc2dc\uc544\uc758_": 5873, "165": 5874, "\uac00\uc218\ub85c_": 5875, "\ud589\uc0ac\uc5d0\uc11c_": 5876, "\uadf8\ub9bc_": 5877, "\ud65c\uc6a9_": 5878, "18\ub144_": 5879, "15\ub144": 5880, "22\ub144_": 5881, "\uc2a4\ud2b8\uac00_": 5882, "\uc7a5\uae30\uac04_": 5883, "\ub2a0": 5884, "\uba54\uc2dc\ub294_": 5885, "\uae30\uad00\uc740_": 5886, "\ub9ac\uadf8\uac00_": 5887, "\u6c11": 5888, "240": 5889, "\uad00\ub9ac\uac00_": 5890, "\uac00\ub9ac_": 5891, "\u3093": 5892, "\ubc30\uc6b0\ub294_": 5893, "\ud589\uc0ac\ub294_": 5894, "\ud188": 5895, "\uc778\uc0c1\uc774_": 5896, "11\ub144_": 5897, "\ub014": 5898, "\uc610": 5899, "\ub9ac\uc2a4\ud1a0": 5900, "\ub418\uc5c8\ub2e4\ub294_": 5901, "\ud655\uc0b0_": 5902, "\ub0a8\uc790\ub294_": 5903, "1900": 5904, "\ub4dd\uc810\uc73c\ub85c_": 5905, "\ud769": 5906, "\uc50c": 5907, "\uc790\uaca9_": 5908, "\ubaa9\ud45c_": 5909, "\ub178\ub3d9_": 5910, "\uc704\uc6d0\uc73c\ub85c_": 5911, "\uc758\uc6d0\uc5d0_": 5912, "\uac10\uc18c_": 5913, "\ub3d9\uc6d0_": 5914, "\uc544\uc2dc\uc544\uc758_": 5915, "\ub3c4\uc2dc\ub97c_": 5916, "\ud569\uc758\ud55c_": 5917, "\uac2f": 5918, "\u00b4": 5919, "\u548c": 5920, "\ube80": 5921, "\uc815\ub3c4\uc5d0_": 5922, "\ub530\ub974\ub294_": 5923, "\uac19\ub2e4\uace0_": 5924, "\uc2dc\uc7a5\uacfc_": 5925, "\uc5ec\uae30\ub294_": 5926, "rat": 5927, "\uac1c\uc778\uc774_": 5928, "\ub274\uc2a4\ub97c_": 5929, "\uc288\ud305_": 5930, "\uc544\ub4e4\uc740_": 5931, "\uae08\uc561_": 5932, "\uc81c\uc870_": 5933, "\uace0\uc18d_": 5934, "\uac19\ub2e4\ub294_": 5935, "\uc815\uc2e0\uc774_": 5936, "\uc120\uc815\ud55c_": 5937, "\uc190\ud765\ubbfc_": 5938, "\uc5f0\uae30\ub85c_": 5939, "\uadc4": 5940, "2014\ub144": 5941, "\uad50\uccb4\ub97c_": 5942, "\uc0d0": 5943, "\ubcf4\uc778\ub2e4\uace0_": 5944, "\u0443": 5945, "\uae61": 5946, "\u7d93": 5947, "\u3046": 5948, "\ub6f0\uc5b4_": 5949, "\uac70\ub9ac\ub85c_": 5950, "\uc218\uc218_": 5951, "\ucd95\uad6c\uc5d0_": 5952, "\uc378": 5953, "\uc5ec\uc131\uacfc_": 5954, "\uacfc\uc815\uc740_": 5955, "\u4ec1": 5956, "\ub371": 5957, "220": 5958, "\ud6e4": 5959, "\ud0c0\uc774\uc5b4": 5960, "\uac15\ub825_": 5961, "13\ub144_": 5962, "\ud589\ub3d9_": 5963, "\uc5c6\ub2e4\uba74_": 5964, "\ub9cf": 5965, "\uc21c\uac04\uc5d0_": 5966, "\uc5c8\ub2e4_": 5967, "\uc384": 5968, "PD_": 5969, "\uad6c\ub2e8\uc5d0_": 5970, "\uc120\uace0_": 5971, "\ubd80\uc0c1\uc774_": 5972, "\u9f8d": 5973, "\ube44\ud589_": 5974, "\ub79c\ub4dc\ub85c_": 5975, "1948\ub144_": 5976, "13_": 5977, "25\ub144_": 5978, "148": 5979, "\uc9c0\uc815_": 5980, "\ubcf4\uc774\uac8c_": 5981, "2015\ub144": 5982, "127": 5983, "\ucfe1": 5984, "\ub0ac\ub2e4\ub294_": 5985, "\uacbd\uae30\ub85c_": 5986, "\u5b9a": 5987, "\ub738": 5988, "\uc9c4\ub2e4\uba74_": 5989, "ach": 5990, "\uc5b4\ub5a4": 5991, "\uc2b9\ubd80_": 5992, "137": 5993, "\uc9c0\ud558\uac8c_": 5994, "\ud31c": 5995, "\uc6b4\uc804\uc790_": 5996, "\uc11c\ube44\uc2a4\ub294_": 5997, "\uc785\uc7a5\uc740_": 5998, "\ub514\uc2a4\ud06c": 5999, "\u043c": 6000, "\uc0c1\ud0dc_": 6001, "\uacb0\uc815\uc740_": 6002, "\u4e94": 6003, "\uce5c\uad6c\ub294_": 6004, "\uc9c4\ub2e4\uace0_": 6005, "\ud3c9\uac00\ub294_": 6006, "\ud3c8": 6007, "\uc2a4\ud2b8\uc758_": 6008, "\ud655\uc778\uc744_": 6009, "\uc694\uae08\uc774_": 6010, "\ub274\uc2a4\uc5d0_": 6011, "\u6797": 6012, "\uc815\ub2f9\ud55c_": 6013, "146": 6014, "\ud0dc\uc591_": 6015, "\uc2a4\ud3ec\ub974": 6016, "\uad00\uacc4\uc758_": 6017, "ren": 6018, "\ubc29\ubb38\uc744_": 6019, "2200": 6020, "\ub314": 6021, "1975\ub144_": 6022, "1300": 6023, "139": 6024, "\ud310\ub2e8\uc5d0_": 6025, "\u3131": 6026, "12\ub144": 6027, "\uce89": 6028, "\ucd95\uad6c\ub294_": 6029, "\uc774\uc57c\uae30\ub2e4": 6030, "\uac1c\uc778\uc815\ubcf4_": 6031, "\uc9c0\ud558\uae30_": 6032, "4\ub144\ubd80\ud130_": 6033, "126": 6034, "\uc2e4\uc2dc\uac04": 6035, "\uadfc\ubb34\ub97c_": 6036, "\u8207": 6037, "\u77e5": 6038, "\uac71\uc815\uc744_": 6039, "\ud0c0\uc784\uc744_": 6040, "\ub3c4\uc785\uc744_": 6041, "17\ub144_": 6042, "\uc298": 6043, "\uc598\uae30\ub3c4_": 6044, "SKT": 6045, "\uc9c0\uc801_": 6046, "rop": 6047, "\uc5f0\uae30\uc790_": 6048, "\u53f8": 6049, "\ub978\ub2e4\ub294_": 6050, "\ubcf4\uc7a5_": 6051, "\ub418\uc5c8\ub2e4\uac00_": 6052, "\ub0a1": 6053, "\u56db": 6054, "\ub205": 6055, "\u4e0b": 6056, "\u5b98": 6057, "\u3057": 6058, "\u912d": 6059, "\ud68c\uacac": 6060, "\ub9e8\uccb4": 6061, "\uc601\uc5b4\ub85c_": 6062, "\uc5ec\ub860_": 6063, "\ud558\uc600\ub2e4\uace0_": 6064, "\uacf5\uc815\ud55c_": 6065, "\uc704\uc6d0\uc744_": 6066, "\uac40": 6067, "136": 6068, "\uc544\uc2dc\uc548_": 6069, "\uc5ed\ud560_": 6070, "\ud0c0\uc774_": 6071, "\ucd9c\uc2dc\ud588\ub2e4": 6072, "138": 6073, "\ud655\ub300\ub97c_": 6074, "\uac14\ub2e4_": 6075, "2019\ub144_": 6076, "\u4e4b": 6077, "\uae30\uc0ac\ub294_": 6078, "\uc5ec\uae30\uc5d0\ub294_": 6079, "\ub79c\ub4dc\uc5d0_": 6080, "149": 6081, "\ud504\ub85c\uc774": 6082, "\uad6d\uac00\ub294_": 6083, "\ubd80\uc778\uacfc_": 6084, "\u793e": 6085, "3\ub144\ubd80\ud130_": 6086, "\ucda9\uaca9_": 6087, "\u99ac": 6088, "\uac74\ubb3c\uc774_": 6089, "\uc544\ub4e4\uacfc_": 6090, "\uc9c0\ub098\uac00": 6091, "114": 6092, "\uae30\uad00\uc744_": 6093, "\uc5ed\uc0ac\uc758_": 6094, "\ub300\ud1b5\ud569": 6095, "\uc544\ub2c8_": 6096, "\u53cd": 6097, "\u592b": 6098, "\ud0a4\uc2a4\ub97c_": 6099, "\uc778\uc0ac\uac00_": 6100, "\uac00\uc9c0\uc758_": 6101, "it_": 6102, "\uae41": 6103, "\ud504\ub791\uc2a4\ub294_": 6104, "\ub3c4\uc2dc\ub294_": 6105, "\uc62c\ub9ac\uc9c0_": 6106, "\u767d": 6107, "\uc778\uc0c1\uc5d0_": 6108, "\ubb34\ud55c\ub3c4\uc804_": 6109, "\uc9d6": 6110, "\uc5ed\uc0ac\uc5d0_": 6111, "\uc804\uad6d\uc5d0_": 6112, "\ub308": 6113, "118": 6114, "\uad6d\ud68c\uc758_": 6115, "\uc1a5": 6116, "\ud2cb": 6117, "1800": 6118, "\u0439": 6119, "\uc9e0": 6120, "\uc88b\ub2e4\uace0_": 6121, "16\ub144_": 6122, "\uad76": 6123, "\uad6c\uc785_": 6124, "\uc05c": 6125, "\ub4dc\ub9ac\ub294_": 6126, "\u898b": 6127, "\u2014": 6128, "\u5e74": 6129, "\uc0f9": 6130, "\u6cb3": 6131, "\u5584": 6132, "\uc9c0\uc6d0\uc5d0_": 6133, "\u3048": 6134, "\uc911\uc2ec\uc744_": 6135, "\u6642": 6136, "\ub79c\ub4dc\uc5d0\uc11c_": 6137, "\uc778\ubb3c\uc744_": 6138, "\uc5b5\uc6d0\uc5d0\uc11c_": 6139, "\ud68c\uc0ac\ub85c_": 6140, "\ucd95\uad6c\uac00_": 6141, "\ub9ac\uc2a4\ud06c": 6142, "1\ub9cc\uc6d0": 6143, "\ub3cc\uc544_": 6144, "\ud310\ub2e8\uc774_": 6145, "\ud54d": 6146, "\ud55c\ud654\uac00_": 6147, "rit": 6148, "\ucf54\uce58\ub97c_": 6149, "\uc598\uae30_": 6150, "\ub3d7": 6151, "\uad50\uc218\ub85c_": 6152, "\ub301": 6153, "\uc0f4": 6154, "\ub09c\ub2e4\ub294_": 6155, "\ucff5": 6156, "\uc694\uad6c\uac00_": 6157, "\uc0ac\ud68c\ub294_": 6158, "\uff0d": 6159, "\ud558\uc600\ub358_": 6160, "\uad6d\ud68c\ub97c_": 6161, "\u91cc": 6162, "\ub4f1\ud310_": 6163, "\ucc48": 6164, "\uad6c\uc131\uc744_": 6165, "\u5c0d": 6166, "\u5341": 6167, "\uce75": 6168, "\uc5c6\uc5c8\ub2e4\ub294_": 6169, "\u5f8c": 6170, "21\ub144_": 6171, "\u5168": 6172, "\ud320": 6173, "147": 6174, "\ub300\ud654\uac00_": 6175, "\uc698": 6176, "\uc57c\uad6c\ub294_": 6177, "39\ub144_": 6178, "\ub618": 6179, "\ub098\uc774\ub294_": 6180, "\ucd28": 6181, "\u7406": 6182, "\u4fe1": 6183, "\uc2a4\uce74_": 6184, "\ud5c9": 6185, "\uc5c6\uc5c8\uace0_": 6186, "\uc2e4\uc2dc\ud588\ub2e4": 6187, "\ud310\ub2e8_": 6188, "117": 6189, "\u00ed": 6190, "\ubcf4\uc774\uae30_": 6191, "750": 6192, "22365": 6193, "\uce21\uba74\uc744_": 6194, "\ube44\uad50_": 6195, "\ucc28\uc774_": 6196, "\ub38c": 6197, "\ud655\uc778\ud574_": 6198, "\ub3c5\uc77c\uc740_": 6199, "\uc0ac\ud68c\ubcf5\uc9c0": 6200, "\ud3c9\ud654_": 6201, "\u03bf": 6202, "1946\ub144_": 6203, "\uc778\uac00\uc694": 6204, "\uc3df\uc544\ub0c8\ub2e4": 6205, "\u671d": 6206, "\u7b2c": 6207, "\u5bae": 6208, "\uc36c": 6209, "\ud154\ub808\ucf64": 6210, "\u677e": 6211, "\uc57c\uad6c\uc5d0_": 6212, "\uff1a": 6213, "\uc774\ud558\ub294_": 6214, "\uc8fc\ubaa9_": 6215, "\uac00\ub2a5\ud558\ub2e4\ub294_": 6216, "\u4f5b": 6217, "\u2462": 6218, "\uc608\uace0_": 6219, "\u6c38": 6220, "\ubabb\ud588\ub2e4\uace0_": 6221, "\uc3dc": 6222, "\ub560": 6223, "\uc911\uc694_": 6224, "17_": 6225, "\uc544\ub0b4\uace0_": 6226, "\uc5c6\uc5c8\uace0": 6227, "\ud22c\uc218\ub294_": 6228, "210": 6229, "\uc5c5\uacc4\uac00_": 6230, "yst": 6231, "\u00e0": 6232, "\u6f22": 6233, "\u8056": 6234, "\ub299": 6235, "\uc0c1\ub300\ub294_": 6236, "\uacf5\uac1c\ub97c_": 6237, "\uad50\uc218\ub97c_": 6238, "1965\ub144_": 6239, "\ucc38\uc11d_": 6240, "\ud22c\uc790\uac00_": 6241, "\u4e8c": 6242, "\uc570": 6243, "1\ub144\ubd80\ud130_": 6244, "\uc778\ub3c4\uc758_": 6245, "\uc774\uc57c\uae30\ub3c4_": 6246, "36\ub144_": 6247, "5\ub144\ubd80\ud130_": 6248, "\ub2f9\uc120_": 6249, "\uc2a4\ud130\ub97c_": 6250, "116": 6251, "\ubc99": 6252, "\u53f2": 6253, "\uc2b9\ub9ac\uac00_": 6254, "\uc774\uc0ac\ub97c_": 6255, "\uc11c\ube44\uc2a4\uc5d0_": 6256, "\ud15d": 6257, "24\ub144_": 6258, "230": 6259, "\u8208": 6260, "\ub3cc\uc544\uac00_": 6261, "129": 6262, "\u65b9": 6263, "\ub3d9\ubb3c\uc744_": 6264, "\uc99d\uac70_": 6265, "\u8eca": 6266, "320": 6267, "\u4ee3": 6268, "\uc82f": 6269, "\ub098\uc774\ub97c_": 6270, "\uc81c10": 6271, "\ub04c\uc5b4_": 6272, "\u00b2": 6273, "\uc5f0\uad6c\uac00_": 6274, "\uc88b\uc544\uc694": 6275, "\uc778\uc0ac\ub294_": 6276, "\uc5d0\uc774_": 6277, "\u6176": 6278, "\uac00\uc218\uac00_": 6279, "\ud22d": 6280, "2\ub144\ubd80\ud130_": 6281, "\uc598\uae30\ub294_": 6282, "\uc544\ub098_": 6283, "144": 6284, "\ud3c9\ud654\ub97c_": 6285, "1949\ub144_": 6286, "\ucea3": 6287, "\uc138\uc774_": 6288, "\uc774\ud574\ub97c_": 6289, "\ub9ac\uc2a4\ub294_": 6290, "\uc774\uace0\uc694": 6291, "\u5316": 6292, "\uc2dc\ub9ac": 6293, "\ub8fb": 6294, "\u064a": 6295, "\ubcf4\uc774\uc9c0\ub9cc_": 6296, "\uc2a4\ud0c0\ub97c_": 6297, "\uc5ed\uc0ac\uac00_": 6298, "im_": 6299, "\ub9c8\ub974_": 6300, "\uc870\uce58\ub294_": 6301, "\ud655\ubcf4_": 6302, "\uc5c6\ub2e4_": 6303, "\ub9cc\ub4e4\uc5b4\uc57c_": 6304, "\ucc28\uc9c0\ud558\uba70_": 6305, "\uc774\uc0ac\ud68c_": 6306, "\ub0bc": 6307, "\uac00\uc694_": 6308, "ere": 6309, "\u6708": 6310, "\uc790\ub3d9\ucc28\ub97c_": 6311, "\uc218\uc6a9_": 6312, "\ucce4\ub2e4\uace0_": 6313, "\uc2e0\ubb38\uc774_": 6314, "\uc804\uae30\ub97c_": 6315, "\uc308": 6316, "\uc2dc\ub3c4\ub97c_": 6317, "\u5fe0": 6318, "\uc815\ubcf4\ub294_": 6319, "\uc904\uc5b4_": 6320, "\uae30\uc790\ub4e4\uc758_": 6321, "\ud50c\ub808\uc774\ub294_": 6322, "\uadf8\ub9ac\uc2a4\uc758_": 6323, "\ub0a8\uc131\uc744_": 6324, "\u8a18": 6325, "\uc2e4\ud328_": 6326, "\ub35f": 6327, "\ub08c": 6328, "\ud558\uace0\uc694": 6329, "\ube60\ub974\uace0_": 6330, "\u00f3": 6331, "\uc608\uc220_": 6332, "370": 6333, "\uc900\ub2e4\uace0_": 6334, "270": 6335, "\uc270": 6336, "\ub192\ub2e4\uace0_": 6337, "280": 6338, "\u83ef": 6339, "\uc2dc\uc544\ub294_": 6340, "\u0301": 6341, "\u304b": 6342, "32\ub144_": 6343, "\u5f35": 6344, "\uac00\ub9ac\ub294_": 6345, "\uc5ed\uc0ac\ub294_": 6346, "\ub7ec\uc2dc\uc544\ub294_": 6347, "\ub41c\ub2e4_": 6348, "\u654e": 6349, "ori": 6350, "\uc874\uc7ac_": 6351, "\u6d1e": 6352, "\uc138\uacc4\uac00_": 6353, "\ubd80\ubaa8\ub97c_": 6354, "\ub300\ud68c\uc758_": 6355, "\ubd80\ub974\uace0_": 6356, "\uc774\ud558\uac8c_": 6357, "\ucfc4": 6358, "\ub2aa": 6359, "\u540c": 6360, "\uc544\uc774\uc720\ub294_": 6361, "\ud145": 6362, "\uba54\uc774\uc9c0_": 6363, "\ubc15\uc9c0\uc6d0_": 6364, "\uad0c": 6365, "est_": 6366, "23\ub144_": 6367, "\uc774\ub300\ub85c_": 6368, "\uae30\uc790\ub4e4\uc774_": 6369, "3500": 6370, "\ubc30\uc6b0\uace0_": 6371, "\uc911\ub2e8\uc744_": 6372, "12\ub9cc": 6373, "\uc218\ud589_": 6374, "\uc5d4\ud130": 6375, "\u53e4": 6376, "\uac04\ub2e4\uace0_": 6377, "\uc0c1\uc2b9\uc744_": 6378, "\ubcd5": 6379, "\uc9c0\ubc29\uc744_": 6380, "1944\ub144_": 6381, "\ub274\uc2a4\uac00_": 6382, "\u540d": 6383, "13\ub144": 6384, "\ud06c\ub2e4\uace0_": 6385, "\ub098\uac00\uc9c0_": 6386, "\uc18c\ud654_": 6387, "\u660c": 6388, "\u30a4": 6389, "\uae40\ud604\uc815_": 6390, "\ubd80\uc778\uc774_": 6391, "\uc740\ud589\uc744_": 6392, "\uc804\ubb38\uac00\ub294_": 6393, "\u0631": 6394, "\u81e3": 6395, "\uac00\uc815\uc744_": 6396, "\u6b0a": 6397, "28\ub144_": 6398, "\ub9cc\ub098\uc11c_": 6399, "\ub3cc\ud30c_": 6400, "\uae30\uc790\uc640_": 6401, "\u7f85": 6402, "\ud50c\ub808\uc774\uc5d0_": 6403, "\u6728": 6404, "\uac1c\uc815\uc744_": 6405, "\uc2b9\ubd80\uac00_": 6406, "37\ub144_": 6407, "\u901a": 6408, "\uacbc\ub2e4\ub294_": 6409, "\uc5ec\uc790\ub294_": 6410, "\ub2f9\ud588\ub2e4\uace0_": 6411, "\uc2a4\ud2b8\ub808\uc774": 6412, "\ub380": 6413, "\uc608\uc0c1\uc744_": 6414, "\ucd9c\ubc1c_": 6415, "\uc6cd": 6416, "\uce74\ub4dc\uc758_": 6417, "330": 6418, "\ub514\uc2a4\ud06c_": 6419, "\uc870\uc815\uc774_": 6420, "35\ub144_": 6421, "\uacf5\uacf5_": 6422, "\uc27c": 6423, "\uc598": 6424, "\u91cd": 6425, "24_": 6426, "380": 6427, "342_": 6428, "\uc9c0\uc18d_": 6429, "\uc6c3\uc74c_": 6430, "\uc790\ub3d9\ucc28\uac00_": 6431, "\ub9ac\uc2a4\ub9c8_": 6432, "\uf933": 6433, "\u798f": 6434, "\ub9b0\ub2e4\uace0_": 6435, "\u7687": 6436, "\uac74\uc124\uc744_": 6437, "\ud5e5": 6438, "\uac14\ub2e4\uace0_": 6439, "\uc120\uc218\ub3c4_": 6440, "650": 6441, "\ub294\ub2e4_": 6442, "\ub5b3": 6443, "\uc555\ubc15_": 6444, "\u58eb": 6445, "\ub274\uc2a4\ub294_": 6446, "\u0646": 6447, "\uca61": 6448, "\uc5ee": 6449, "\u9762": 6450, "\uc6b4\uc804\uc790\uac00_": 6451, "\ud604\ub300\uc758_": 6452, "\uc774\uc57c_": 6453, "38\ub144_": 6454, "\ub9c8\uc9c0": 6455, "\u00fc": 6456, "\ub9ce\ub2e4\uace0_": 6457, "\uac1c\uc778\uc815\ubcf4": 6458, "\uadfc\uac70_": 6459, "\ud604\ub300\uc911": 6460, "\ucd18": 6461, "\u6211": 6462, "\ubab9": 6463, "\ucce4\ub2e4\ub294_": 6464, "\ucc98\ub9ac\uac00_": 6465, "oth": 6466, "\uac71\uc815_": 6467, "\ub178\ub825_": 6468, "\ub204\ub9ac\uace0_": 6469, "\u0645": 6470, "550": 6471, "1947\ub144_": 6472, "\ub544": 6473, "are": 6474, "11\ub144": 6475, "\u30b9": 6476, "\uc5f0\uad6c\ub294_": 6477, "\uac14\ub2e4\ub294_": 6478, "\uc5d0\uc774\uace0_": 6479, "\ud504\ub9ac\uc2a4\ucf00\uc774": 6480, "\uc2b9\ub9ac\ub294_": 6481, "ele": 6482, "\uc5c4\uccad_": 6483, "\u81ea": 6484, "\ucd9c\ubc1c\uc744_": 6485, "\ud2bf": 6486, "\uc704\uc6d0\uc758_": 6487, "\uccb4\ud3ec_": 6488, "\uc57c\uad6c\uac00_": 6489, "\ubd80\ubd84\uc758_": 6490, "\uc2e4\ud328\ub97c_": 6491, "\ubc14\ub77c\uace0_": 6492, "\uc2dc\uc7a5\uc73c\ub85c_": 6493, "\u6751": 6494, "les": 6495, "\uc0dd\uc0b0\uc744_": 6496, "\uc9c1\uc7a5\uc744_": 6497, "\u5e1d": 6498, "\uacf5\uc815_": 6499, "\uc123": 6500, "\uc778\uac00\ub97c_": 6501, "\uacbd\uc81c\ub294_": 6502, "\uc601\uc5b4\ub97c_": 6503, "las": 6504, "\ubd80\uc815_": 6505, "\uce04": 6506, "\uac00\uc815\uc758_": 6507, "CC_": 6508, "260": 6509, "\u5409": 6510, "\u8d99": 6511, "\uc18c\ube44\uac00_": 6512, "\uc5ec\uc790\ub97c_": 6513, "\uae40\ud604\uc815\uc758_": 6514, "\uba54\uc2dc\uac00_": 6515, "\ucd9c\uc804\uc774_": 6516, "\ub3c4\ub85c\ub294_": 6517, "\uc8fc\ub3c4\ub85c_": 6518, "\u03bd": 6519, "\ud655\ubcf4\ub97c_": 6520, "\uc601\uc0c1\uc5d0_": 6521, "\u03c2": 6522, "\u5c39": 6523, "\ud574\uc678\uc5d0_": 6524, "\uc0ac\uacfc\uc758_": 6525, "\u2015": 6526, "\uc218\ube44\uac00_": 6527, "\uc9e4": 6528, "\ud2ac": 6529, "\uacbc\ub2e4\uace0_": 6530, "\u5ee3": 6531, "\u975e": 6532, "\uc870\uc131_": 6533, "1400": 6534, "\ub0a8\uc790\ub97c_": 6535, "\uac00\uc9c0\uac8c_": 6536, "\u0433": 6537, "\ud638\ub0a0\ub450_": 6538, "\ub5d0": 6539, "\ub7ec\uc2dc\uc544\uac00_": 6540, "27\ub144_": 6541, "\ub514\uc624\ub294_": 6542, "\uc790\ub9ac\ub85c_": 6543, "\ub3c4\uc804\uc5d0_": 6544, "\ubcf4\ub3c4\uc785\ub2c8\ub2e4": 6545, "\uc9c8\ubb38\uc774_": 6546, "\u5d14": 6547, "\ub3c4\uc2dc\uc5d0_": 6548, "\ubcc0\uacbd\uc744_": 6549, "\uacf5\uac04\uc5d0_": 6550, "\uc539": 6551, "\uc6e8\uc774\ub294_": 6552, "\uc900\ube44\ud574_": 6553, "\uc88b\ub2e4\ub294_": 6554, "\uc758\uc0ac\uc758_": 6555, "\uc77c\ubd80\ud130": 6556, "\ubd88\uc548_": 6557, "\uc778\uae30\ub294_": 6558, "33\ub144_": 6559, "\ud338": 6560, "\uae30\uc131\uc6a9_": 6561, "ara": 6562, "\ub0a8\uc131\uacfc_": 6563, "\uc870\uc0ac\uc640_": 6564, "\ud798\ub4e4\uc5b4_": 6565, "\u516b": 6566, "\ub098\uac00\uc218": 6567, "\ub3c4\ub85c\uc758_": 6568, "\ud68c\uc7a5\uc5d0_": 6569, "\ub098\ubb34\ub97c_": 6570, "\u5c07": 6571, "\u6df8": 6572, "\ubf55": 6573, "\uc815\uc0c1\uc744_": 6574, "34\ub144_": 6575, "\uc804\ud788_": 6576, "\uce85": 6577, "lac": 6578, "\ub3d9\uc6d0\uc740_": 6579, "\uc124\uba85\uc774_": 6580, "\u5802": 6581, "\uae30\ucd08_": 6582, "lat": 6583, "\uc870\uc815\uc5d0_": 6584, "\uc544\uc774\uc720_": 6585, "\ub2e8\uacc4\ub97c_": 6586, "123": 6587, "rist": 6588, "\uc6e8\uc774\uc758_": 6589, "\ub3c4\uc2dc\uac00_": 6590, "\uc138\uc694_": 6591, "ile": 6592, "\ud45c\ud604_": 6593, "\ud504\ub791\uc2a4\uc640_": 6594, "\uc9c0\uc6d0\uacfc_": 6595, "\uad11\uace0\ub294_": 6596, "\ubc9a": 6597, "\ud22c\uc218\uc758_": 6598, "\uc9c0\uad6c\uc5d0_": 6599, "\u90de": 6600, "\uae08\uc9c0\ud558\ub294_": 6601, "\ubcf8\ub2e4\uba74_": 6602, "\ubb3c\ub7ec_": 6603, "31\ub144_": 6604, "\ud1a0\ub860_": 6605, "\uc231": 6606, "\u8272": 6607, "26\ub144_": 6608, "\ub2e8\uccb4\ub97c_": 6609, "\uc720\uc9c0\ub97c_": 6610, "\ub274\uc2a4\uc758_": 6611, "rou": 6612, "\uc18c\uc720_": 6613, "\uc758\uc0ac\ub294_": 6614, "\uc6b0\ub9ac\uc640_": 6615, "\uc2b9\ubd80\uc5d0_": 6616, "\uba54\uc2dc\uc758_": 6617, "\ubd80\uc0c1\uc5d0\uc11c_": 6618, "\u7269": 6619, "\uc11c\ube44\uc2a4\uc758_": 6620, "\uc5f0\uae30\ub294_": 6621, "\uc774\uc5b4\uc57c_": 6622, "\ub514\uc2a4_": 6623, "\ud401": 6624, "\uc548\uc815_": 6625, "\u306a": 6626, "\uc218\uc785\uc740_": 6627, "\ubee4": 6628, "124": 6629, "\u30eb": 6630, "eth": 6631, "\uc9c0\uad6c\ub97c_": 6632, "\uc5ec\uc790\uc758_": 6633, "\ub11b": 6634, "\ud68c\uc0ac\uc640_": 6635, "\ucde8\uc5c5\uc744_": 6636, "\uc778\uc815\uc744_": 6637, "\u2022": 6638, "\uae30\uc0ac\uc5d0_": 6639, "\uba85\ub839_": 6640, "\ud301": 6641, "\ud64d\ubcf4\ub97c_": 6642, "\uc100": 6643, "11\ub9cc": 6644, "\uc778\ubbfc_": 6645, "\ud398\uc774_": 6646, "5\ucc9c_": 6647, "\ub204\uad6c\ub97c_": 6648, "1100": 6649, "\ud22c\uc785_": 6650, "\ub354\ub77c\uba74_": 6651, "\u6a02": 6652, "\u044f": 6653, "\uc694\uccad_": 6654, "\ub9ac\uc2a4\uc758_": 6655, "\uc804\ubb38\uac00\ub97c_": 6656, "\uae30\uc0ac\uc5d0\uc11c_": 6657, "\uce74\uba54\ub77c\ub294_": 6658, "\uc785\uc7a5\uc5d0_": 6659, "\u5831": 6660, "\uc9c0\ub098\ub294_": 6661, "\uc720\uc9c0\ud558\uae30_": 6662, "\uc601\uc0c1\uc5d0\uc11c_": 6663, "14\ub144": 6664, "\uc92c\ub2e4\ub294_": 6665, "lam": 6666, "\ub07d": 6667, "\ubcf4\uc774_": 6668, "\u5206": 6669, "1942\ub144_": 6670, "\uc778\uc0c1\uc740_": 6671, "\uad6c\ub2e8\uc744_": 6672, "\uac1c\uc120\uc5d0_": 6673, "\uc2a4\ud2b8\uc5d0_": 6674, "\ud3ec\uae30_": 6675, "\u305f": 6676, "\ub525": 6677, "\ud2b8\ub9ac\uba70_": 6678, "eric": 6679, "\u5289": 6680, "\uc9ec": 6681, "\uc9c8\ubb38_": 6682, "\uad6d\ud68c\ub294_": 6683, "21_": 6684, "\ube44\uc11c_": 6685, "\u5167": 6686, "\u00b1": 6687, "\ub098\ud0c0\ub0ac\ub2e4\uace0_": 6688, "\uc0b0\uc5c5\uc744_": 6689, "\uc804\ub2ec_": 6690, "\uc0bc\uc131\uc5d0_": 6691, "113": 6692, "\uc81c\uc2dc_": 6693, "\uae01": 6694, "1700": 6695, "\u5408": 6696, "\ud2b8\ub9ac\uc5d0_": 6697, "\uacf5\uacf5\uc5f0": 6698, "\uc379": 6699, "\ud655\uc778\uc774_": 6700, "\u6625": 6701, "\ub9ac\uc2a4\ud2b8\ub294_": 6702, "\ub204\uad6c_": 6703, "2\ub9cc\uc6d0": 6704, "\uc218\uc0c1\uc744_": 6705, "\ud0c0\uc774\uc5b4_": 6706, "\uc6d0\ub0b4_": 6707, "\u0447": 6708, "26_": 6709, "\u03b9": 6710, "\uac00\uc785\uc744_": 6711, "4\ub144\uc5d0\ub294_": 6712, "\uc774\ub974\uace0_": 6713, "\u89aa": 6714, "\uc98c": 6715, "\ucd94\uc815_": 6716, "\ub2e4\uc774_": 6717, "\uc790\ub3d9\ucc28\ub294_": 6718, "\uc131\uc7a5\uc774_": 6719, "\uaca0\ub2e4_": 6720, "\u30e9": 6721, "\u5e2b": 6722, "\ud168": 6723, "\uc9c0\uc9c0\ub294_": 6724, "\ubfb0": 6725, "\u0648": 6726, "\uac9f": 6727, "\uc601\uad6d\uc740_": 6728, "ra_": 6729, "\uba84": 6730, "\uc5f0\ud569\uc758_": 6731, "\uc18c\ube44\ub97c_": 6732, "\ub365": 6733, "\uadf8\ub9ac\ub294_": 6734, "\uc8fc\ub3c4\ub294_": 6735, "\u0431": 6736, "\uade4": 6737, "\uc704\uce58\uac00_": 6738, "\uac1c\uc120\uc774_": 6739, "\ubc18\ub300\uc758_": 6740, "\ube91": 6741, "\ud558\uc774\ub77c\uc774": 6742, "\uc0ac\uc9c4\ucd9c": 6743, "\uac70\ub9ac\uc758_": 6744, "\u9ec3": 6745, "\ud5c8\uc6a9_": 6746, "\ub418\uc5b4\uc11c_": 6747, "\ub9b0\ub2e4_": 6748, "\uc9c0\ub098\uac00\ub294_": 6749, "ris": 6750, "3\ub144\uc5d0\ub294_": 6751, "\uc5c8\ub2e4\uac00_": 6752, "ler": 6753, "\u00f6": 6754, "\uc81c\ucd9c_": 6755, "\ud398\uc774\uc2a4\ub97c_": 6756, "\uc5f0\uae30\uc790\ub85c_": 6757, "\u696d": 6758, "\ub410\ub2e4\uac00_": 6759, "\uc608\uc815_": 6760, "\u6230": 6761, "\u8c37": 6762, "len": 6763, "\uc30c": 6764, "29\ub144_": 6765, "\uad9c": 6766, "\ub098\ud0c0_": 6767, "\uc2dc\uc2a4\ud2b8": 6768, "\u8ad6": 6769, "\uad70\uc0ac\ub839": 6770, "\uc774\uc801\uc774_": 6771, "\ubd88\uac00_": 6772, "\uac38": 6773, "\uc3d9": 6774, "\u60f3": 6775, "\uc704\uc6d0\ud68c\uc758": 6776, "\ud143": 6777, "\uacfc\uc815\uc758_": 6778, "\uc815\uce58\uac00_": 6779, "\ub9f4": 6780, "4500": 6781, "365": 6782, "\ub410\ub2e4_": 6783, "\uc791\uc6a9_": 6784, "\ub098\uac00\uc11c_": 6785, "\ud569\ub958_": 6786, "99\ub144_": 6787, "\ud504\ub791\uc2a4\uc5d0\uc11c_": 6788, "\ud654\uc7a5\uc744_": 6789, "\uc81c\uc548_": 6790, "KI": 6791, "\u307e": 6792, "\uae6c": 6793, "\ub4dc\ub77c\ub9c8\uc774\ub2e4": 6794, "\ubc1d\ud614\ub2e4\uace0_": 6795, "\ubc18\ub300\ub97c_": 6796, "\ud2a0": 6797, "\uc815\ub2f9\uc774_": 6798, "\ube74": 6799, "\u6d2a": 6800, "\uc544\ub4e4\uc5d0\uac8c_": 6801, "\ud50c\ub808\uc774\uc5b4_": 6802, "\uc815\ub2f9\uc758_": 6803, "\u2161": 6804, "\uc900\ub2e4\uba74_": 6805, "\uae30\uc131": 6806, "\u2032": 6807, "\u6bcd": 6808, "\u7acb": 6809, "\uc131\uaca9_": 6810, "\uc544\uc774\ub7ec": 6811, "\uc500": 6812, "\ud0f0": 6813, "\u5be7": 6814, "1955\ub144_": 6815, "\ucf00\uc774_": 6816, "340": 6817, "\uc9c0\ub3c4\uac00_": 6818, "\uc52c_": 6819, "\ud655\ub300\ud574_": 6820, "\u5b5d": 6821, "\u2502": 6822, "\uc6b0\ub824\ub294_": 6823, "122": 6824, "\u96f2": 6825, "\uc9c0\ub3c4\ub85d_": 6826, "\ube7d": 6827, "\ud3c4": 6828, "\u8eab": 6829, "\u5b6b": 6830, "\ub118\uc5b4\uc11c_": 6831, "\uac00\uc218\uc758_": 6832, "\u5b88": 6833, "\u03c1": 6834, "1\ucc9c_": 6835, "\uce87": 6836, "\ud55c\uad6d\ubc29\uc1a1": 6837, "\ud398\uc774\uc2a4_": 6838, "ero": 6839, "\uae30\uc5b5_": 6840, "\uc37d": 6841, "\u5916": 6842, "cor": 6843, "\uc778\uae30\uc5d0_": 6844, "\u57fa": 6845, "\uc548\uc804\uc5d0_": 6846, "\uc81c\uae30_": 6847, "\uc11c\ube44\uc2a4\ub85c_": 6848, "\uc120\uace0\ub97c_": 6849, "\uae45": 6850, "\ube0c\ub77c\uc6b4_": 6851, "\uc811\uadfc_": 6852, "\u00e4": 6853, "\uacbd\uae30\uc640_": 6854, "133": 6855, "\ub09c\ub2e4\uace0_": 6856, "\uac10\uc0ac\uc5d0\uc11c_": 6857, "\u516d": 6858, "\ubd80\uc778\uc758_": 6859, "\ub561": 6860, "\uc81c\uc870\uc0ac_": 6861, "\ub370\uc774\uac00_": 6862, "\u044b": 6863, "\uc804\uc790\ub97c_": 6864, "\ud22c\uc790\uc5d0_": 6865, "\uc218\uc0ac\ub294_": 6866, "\ucee5": 6867, "\u6aa2": 6868, "\uc9c0\ud558\uc9c0_": 6869, "\uc2e4\uc2dc_": 6870, "\ube44\ud589\uc744_": 6871, "\uc57d\uc18d_": 6872, "\uac00\ub2a5\ud558\ub2e4\uace0_": 6873, "rom": 6874, "\uc69c": 6875, "\u03c4": 6876, "\uc815\ub9ac_": 6877, "\u3068": 6878, "\ub4dc\ub9ac\uc544": 6879, "\uc774\uc804\ubd80\ud130_": 6880, "\ub215": 6881, "\uc81c18": 6882, "\u664b": 6883, "\uac1c\uc6d4\uc5d0_": 6884, "\uacf5\uac04\uc758_": 6885, "\u4e5d": 6886, "\u6839": 6887, "\uc131\uc7a5\uc5d0_": 6888, "\uc2a4\ud53c_": 6889, "\uc660": 6890, "ale": 6891, "\u5efa": 6892, "\uc815\uc0c1\uc774_": 6893, "\u6cbb": 6894, "\ub0a8\uc790\uc640_": 6895, "\ud248": 6896, "\uac04\ub2e4\uba74_": 6897, "\ubd80\ubb38\uc744_": 6898, "\u56fd": 6899, "\ufeff": 6900, "\u85e4": 6901, "\u33be": 6902, "\uad18": 6903, "\uafcb": 6904, "2\ucc28\ub840_": 6905, "\u044c": 6906, "\u5728": 6907, "\uc468": 6908, "\uc720\ub9ac\ub294_": 6909, "\ub0c8\ub2e4\ub294_": 6910, "5\ub144\uc5d0\ub294_": 6911, "\ud45c\ud604\uc740_": 6912, "\u062f": 6913, "\ub975": 6914, "\u3001": 6915, "\u7956": 6916, "\ubd80\uc778\uc740_": 6917, "31_": 6918, "\ubd80\uc9c4\uc774_": 6919, "\uc911\uc18c_": 6920, "\ub844": 6921, "134": 6922, "\ub838\ub2e4_": 6923, "\u661f": 6924, "\u4e95": 6925, "\ub2f9\ud588\ub2e4\ub294_": 6926, "\u79ae": 6927, "lar": 6928, "25\ub144": 6929, "ret": 6930, "\ucdcc": 6931, "\u8a00": 6932, "\uc18c\uc2dd_": 6933, "480": 6934, "\ub78f": 6935, "\uc815\ub9ac\ub97c_": 6936, "\ubd88\uc548\uc815": 6937, "\uc81c17": 6938, "\uad6c\uc131\uc774_": 6939, "\uc2ec\ud788_": 6940, "\ub461": 6941, "\ucc98\ub9ac\uc5d0_": 6942, "\ubcf4\uc778\ub2e4\ub294_": 6943, "\uad82": 6944, "\uc120\uac70\uc758_": 6945, "\u7a7a": 6946, "2\ub144\uc5d0\ub294_": 6947, "\ub3c5\uc77c\uc774_": 6948, "\ud6d9": 6949, "\u8aaa": 6950, "\uc81c11": 6951, "\u82b1": 6952, "\ud30c\uc774\uc5b4_": 6953, "\ud65c\ub3d9\uc758_": 6954, "\uc778\ud130_": 6955, "23_": 6956, "\ube90": 6957, "\uc77c\ubcf8\uc5b4_": 6958, "\u5716": 6959, "\uc788\uc5c8\ub2e4\uba74_": 6960, "\uc544\uc774\uc640_": 6961, "\uc9c0\uc9c0\ub9cc_": 6962, "\u5eb7": 6963, "\u5b57": 6964, "\u30ea": 6965, "\ubbf8\ub4dc": 6966, "\ubd80\uc0c1\uc5d0_": 6967, "\ub2f4\ub2f9\ud55c_": 6968, "\uc6b4\uc804\uc790": 6969, "470": 6970, "\u601d": 6971, "\uc5ed\uc0ac\uc640_": 6972, "\u7236": 6973, "\uae08\uc9c0\ud558\uace0_": 6974, "\uc804\ud1b5\uc744_": 6975, "\u50cf": 6976, "\uc815\uc0c1\uc758_": 6977, "1\ub144\uc5d0\ub294_": 6978, "\u308a": 6979, "\uc558\ub2e4_": 6980, "\ube44\uc911_": 6981, "\uc84c\ub2e4_": 6982, "are_": 6983, "\ud558\ub2e4\uac00": 6984, "\uc2e0\ubb38\uc744_": 6985, "420": 6986, "\ub0c8\ub2e4\uace0_": 6987, "\u5229": 6988, "\ud611\uc758\ud574_": 6989, "\ud4f0": 6990, "\uc778\uc218\ud55c_": 6991, "\uc778\ub2e4\ub294_": 6992, "\u5468": 6993, "\uc6e0\ub2e4\uace0_": 6994, "\uc200": 6995, "\u76f4": 6996, "\uae30\uc0ac\uc758_": 6997, "27_": 6998, "\u5f0f": 6999, "\uc704\uce58\ub294_": 7000, "\ubca0\ud2b8_": 7001, "\u6cf0": 7002, "\ud504\ub808\uc774": 7003, "\ud0a4\uc2a4\ub294_": 7004, "\uc5c8\ub2e4\uba74_": 7005, "\ubc30\uce58\ub97c_": 7006, "\ud655\ub300\uc5d0_": 7007, "\uc2ef": 7008, "14_": 7009, "\u842c": 7010, "ala": 7011, "\u8def": 7012, "\ud398\uc774\uc9c0_": 7013, "\uc2dc\ub3c4\uac00_": 7014, "\ud588\uace0\uc694": 7015, "\u02c8": 7016, "\u500d": 7017, "\ud54c": 7018, "\u7dda": 7019, "\ud504\ub791\uc2a4\uac00_": 7020, "290": 7021, "\u30c8": 7022, "\uc774\ub3d9\uc744_": 7023, "\u3163": 7024, "\uad70\uc0ac\ub97c_": 7025, "\u5175": 7026, "dis": 7027, "om_": 7028, "\ub3c5\uc77c\uc5d0_": 7029, "\uc5d0\uc774\uace0": 7030, "\uc778\uc0ac\uac74": 7031, "\u98a8": 7032, "\u0628": 7033, "\ubcf4\ub3c4\ub294_": 7034, "\uc5c6\uc5c8\ub2e4\uba74_": 7035, "\uae30\uc0ac\ub85c_": 7036, "2\ucc9c_": 7037, "\uc73d": 7038, "\uc815\ubcf4\ub3c4_": 7039, "\u8fd1": 7040, "\u5225": 7041, "\uc92c\ub2e4\uace0_": 7042, "\ubd88\uc548\uc744_": 7043, "\ud589\uc815\ubd80_": 7044, "\u5224": 7045, "\uc758\ud639\uc740_": 7046, "\uac1c\uadf8_": 7047, "\u5343": 7048, "\uc81c\uc548\uc5d0_": 7049, "\ud68c\uc7a5\uc73c\ub85c_": 7050, "\ubc14\ub77c_": 7051, "\u3147": 7052, "\ucd9c\uc2e0\uc774_": 7053, "\uba54\ub9ac_": 7054, "\ud3ad": 7055, "\u5c19": 7056, "\uc8fc\uc7a5\uacfc_": 7057, "\uc5ec\uae30\uace0_": 7058, "\u7684": 7059, "\u4f5c": 7060, "\uc54a\uc558\ub2e4\uba74_": 7061, "\u5148": 7062, "\ubd84\ub958_": 7063, "\uc53d": 7064, "\uac1c\uc778\uc815\ubcf4\ub97c_": 7065, "\u9ad4": 7066, "\ubaa8\uc591_": 7067, "\uc778\uacf5_": 7068, "\uc0ac\ub77c\ub294_": 7069, "\uc0bc\uc131\uc744_": 7070, "\u771e": 7071, "\ub527": 7072, "\uc81c15": 7073, "\ub4dc\ub77c_": 7074, "\uc804\ud574\uc9c4_": 7075, "\u33a5": 7076, "\uaec4": 7077, "\uad00\ub9ac\ub294_": 7078, "\u6fdf": 7079, "\u9806": 7080, "\u304f": 7081, "\u754c": 7082, "\ud22c\uc790\ub294_": 7083, "\u529f": 7084, "121": 7085, "\u52d5": 7086, "\u689d": 7087, "\ub9ac\uc2a4\uac00_": 7088, "\uc2dc\uc791\uc740_": 7089, "\uce90\ub9ad": 7090, "\u9675": 7091, "\ub2e4\uac00\uac00_": 7092, "\uc774\ubbfc_": 7093, "\u30af": 7094, "\u016b": 7095, "\uc124\uce58\ub97c_": 7096, "\uc9c0\uae08\uc774_": 7097, "\uc7c8": 7098, "\ucd9c\uc2dc\uac00_": 7099, "\u4f0a": 7100, "2011\ub144\ubd80\ud130_": 7101, "\u611b": 7102, "\ub5c0": 7103, "\u6bbf": 7104, "\u547d": 7105, "\ub9cc\ub4e4\uc5b4\uc11c_": 7106, "\uc2b9\ubd80\ub294_": 7107, "\uc18c\uc720\uc758_": 7108, "\u043f": 7109, "\ub098\ub77c\ub3c4_": 7110, "\uac8c\uc774_": 7111, "\uff3b": 7112, "\ud604\uc9c0\uc5d0_": 7113, "\uaf5d": 7114, "\u96c6": 7115, "\uc54c\ub824_": 7116, "\ucda5": 7117, "\uac00\uc838_": 7118, "\ud589\uc0ac\ub85c_": 7119, "\u314e": 7120, "\ub4e4\uc5b4\uc57c_": 7121, "\uc790\ub9ac\uc758_": 7122, "KIS": 7123, "\u4f86": 7124, "\uc81c\uae30\ub97c_": 7125, "\ubd59": 7126, "\ucc38\uac00\ub97c_": 7127, "\ud0d1\uc7ac_": 7128, "\ucc28\uc9c0\ud558\uc600\ub2e4": 7129, "\u7532": 7130, "\u6d25": 7131, "\u753a": 7132, "\uc218\ube44\ub294_": 7133, "\uc601\uad6d\uc5d0_": 7134, "\uc2dc\uc544\uac00_": 7135, "\uc3f4": 7136, "\u627f": 7137, "\u30c3": 7138, "\u885b": 7139, "\uff47": 7140, "\u9593": 7141, "\uc6b0\uc8fc\uc758_": 7142, "\u591a": 7143, "\ucd2c\uc601\uc740_": 7144, "\u5834": 7145, "\ub800\ub2e4\uace0_": 7146, "\ub9cc\ub098\uc9c0_": 7147, "\uc751\ub2f5\ud588\ub2e4": 7148, "\ubc30\uacbd_": 7149, "\u012b": 7150, "\uc131\uc7a5\uacfc_": 7151, "22_": 7152, "\ub9ac\uc2a4\ud2b8\uc5d0_": 7153, "\ud33b": 7154, "\u93ad": 7155, "\uc558\ub2e4\uac00_": 7156, "\u307f": 7157, "\u4fdd": 7158, "\ub3c5\uc77c\uc744_": 7159, "\ub4e4\uc5c8\ub2e4\uace0_": 7160, "\uc774\uc5c8\ub2e4\uba74_": 7161, "\uc9c0\uc815\ud55c_": 7162, "\u03bb": 7163, "\ubc14\uc774\ub97c_": 7164, "\ub9e4\uccb4\ub97c_": 7165, "\uc74c\uc2dd\uc774_": 7166, "\ubcd0": 7167, "\ub178\ub825\uc740_": 7168, "\u7ae0": 7169, "\u304a": 7170, "\uc704\uc6d0\uacfc_": 7171, "\uc804\ubb38\uac00\uac00_": 7172, "\uc9c1\uc6d0\uacfc_": 7173, "\uc0b4\uc544\ub098": 7174, "\uc6e0\ub2e4\ub294_": 7175, "\u8b70": 7176, "\ubc1c\uc804\ud588\ub2e4": 7177, "ro_": 7178, "\uc5ec\uc131\uc5d0_": 7179, "\ud558\uc600\ub2e4\ub294_": 7180, "\uae30\uac04\uc758_": 7181, "\u5bf6": 7182, "\uc060": 7183, "\u5ea6": 7184, "\u67f3": 7185, "\u30a2": 7186, "\uc774\ud558\uace0_": 7187, "\uc798\ubabb\ud55c_": 7188, "\u7701": 7189, "\ud325": 7190, "\ud50c\ub808\uc774\uc640_": 7191, "\ub4f1\uc7a5\uc5d0_": 7192, "\ub9cc\uc6d0\uacfc_": 7193, "rot": 7194, "\u4faf": 7195, "\u2024": 7196, "1\ub9cc\uc6d0_": 7197, "\uc7bc": 7198, "\ub9c8\ub974\ub294_": 7199, "\ubed8": 7200, "\uae4d": 7201, "\u5982": 7202, "\uc18c\uac1c_": 7203, "\u9a5b": 7204, "\u03b5": 7205, "\uc544\uc774\uc720\uc758_": 7206, "\uc81c19": 7207, "\ucd9c\uc804\uc5d0_": 7208, "\u767c": 7209, "\uc705": 7210, "\u2033": 7211, "\ud0a4\uc2a4\uc758_": 7212, "\u3396": 7213, "\u53e3": 7214, "\u7389": 7215, "\uc2a4\ud2b8\uc5d0\uc11c_": 7216, "\u667a": 7217, "\u65cf": 7218, "\uc8fc\ub3c4\uc758_": 7219, "\ucc28\uc774\ub2e4": 7220, "\ub978\ub2e4\uace0_": 7221, "\u5236": 7222, "\uc573": 7223, "les_": 7224, "\u6b7b": 7225, "\uad6d\ud68c\uc758\uc6d0\uc774_": 7226, "\uc131\uacfc\ub294_": 7227, "\u5b8b": 7228, "\ub098\uc654\ub2e4\uace0_": 7229, "\ubb90": 7230, "\uc9c4\ub2e4_": 7231, "142": 7232, "\uc870\uc120\uc5d0_": 7233, "\uae30\uc790\ub97c_": 7234, "era": 7235, "\u6d3e": 7236, "\uc815\uc758\ub97c_": 7237, "\uc678\uad6d\uc758_": 7238, "\uc218\uc0ac\uc640_": 7239, "\u662f": 7240, "310": 7241, "\uadfc\ubb34\ud55c_": 7242, "\ubcf4\uace0\ub294_": 7243, "\uc774\uc0ac\ub85c_": 7244, "\uadfc\ub85c_": 7245, "2012\ub144\ubd80\ud130_": 7246, "\u00e8": 7247, "\uc6f8": 7248, "\u3089": 7249, "\uba54\uc2dc_": 7250, "\ucc10": 7251, "\uacf6": 7252, "\u5de6": 7253, "\uc218\uc0ac\uc758_": 7254, "\ub2e4\ub2c8_": 7255, "\uc81c\uc548\uc774_": 7256, "\uce30": 7257, "\ubd80\uc0c1\uc740_": 7258, "\uc81c\ubaa9\uc744_": 7259, "\uff09": 7260, "\ud798\ub4e4\uace0_": 7261, "\ud5f7": 7262, "3\ub144\uae4c\uc9c0_": 7263, "\u5be6": 7264, "\u9928": 7265, "\u6e90": 7266, "225": 7267, "\u76e3": 7268, "\u610f": 7269, "132": 7270, "\uc720\uc9c0\ud558\uba74\uc11c_": 7271, "\uc124\uba85_": 7272, "\uc778\uc218\ub97c_": 7273, "\ubcf4\uc774\uc790_": 7274, "\ub2e4\uc774\ub77c_": 7275, "\uc544\uc2a4_": 7276, "\uadf8\ub824_": 7277, "\uac00\uc9c0\ub9cc_": 7278, "\u3061": 7279, "\uc608\uc0c1\ub300\ub85c_": 7280, "\ud589\uc0ac\uc758_": 7281, "\u03bc": 7282, "\u89c0": 7283, "\u2463": 7284, "\ubcf4\uc774\uba70": 7285, "\u666f": 7286, "\u0421": 7287, "\uc131\uc7a5\uc758_": 7288, "\ub9ac\uc2a4\ud2b8\ub97c_": 7289, "\uc758\uc6d0\uc73c\ub85c_": 7290, "\uc654\ub2e4_": 7291, "\ud2b8\ub808\uc774\ub2dd_": 7292, "\u5433": 7293, "2012\ub144\uc5d0_": 7294, "\ub9cc\uc6d0\uc740_": 7295, "\u3055": 7296, "\uc58c": 7297, "\uc628\ub2e4\ub294_": 7298, "\u2193": 7299, "\uc8fc\uc778\uacf5\uc744_": 7300, "\ubcf4\uc7a5\uc744_": 7301, "\ubd24\ub2e4\ub294_": 7302, "\ucf20": 7303, "\uc595": 7304, "\u7570": 7305, "\uae30\uc131_": 7306, "3\ucc9c_": 7307, "\u9280": 7308, "\u535a": 7309, "\u5ba3": 7310, "\uc9c0\uc6d0\uc758_": 7311, "\ucf10": 7312, "\uc758\uc0ac\uc640_": 7313, "\uc8fc\uc7a5\uc73c\ub85c_": 7314, "\ud655\uc0b0\uc744_": 7315, "7500": 7316, "\ucd94\uc9c4\uc744_": 7317, "2400": 7318, "\uc81c16": 7319, "\u865f": 7320, "\uc81c13": 7321, "\uc9c0\ub098\uace0_": 7322, "\ud035": 7323, "\uc81c12": 7324, "\ub2e8\uacc4\uc758_": 7325, "\uc2e0\uc6a9_": 7326, "\u79d1": 7327, "\uc6b4\uc804\uc790\uc758_": 7328, "\uac70\ub9ac\uc640_": 7329, "\ud558\ub2e4\uba74_": 7330, "\ub204\uad6c\uc758_": 7331, "\ub2ec\uc131_": 7332, "\u7bc0": 7333, "\u8b58": 7334, "\uac00\ub974\ub294_": 7335, "\u4ee4": 7336, "\ub178\ub825\uc73c\ub85c_": 7337, "\ub300\uc0c1\uc758_": 7338, "\uae7c": 7339, "\uc6b4\uc601\uc774_": 7340, "\u963f": 7341, "4\ub144\uae4c\uc9c0_": 7342, "\uc77c\ubd80\uc758_": 7343, "\ub54c\ubb38\uc774_": 7344, "\uc804\uad6d\uc744_": 7345, "\ubd88\uac00\ub9ac\uc544": 7346, "\ud138\uc5b4_": 7347, "\ud615\ud0dc_": 7348, "\u6d41": 7349, "\uc774\uc57c\uae30\ub85c_": 7350, "\ud589\uc815\ubd80": 7351, "\uc6b4\uc804\uc790\ub294_": 7352, "\ud3ec\ud1a0_": 7353, "\ud6c4\ubcf4\uc778_": 7354, "440": 7355, "let": 7356, "\ud2b8\ub9ac\ub294_": 7357, "\ucfb0": 7358, "\u81fa": 7359, "\uc388": 7360, "$": 7361, "\u97f3": 7362, "\uc18c\ud504\ud2b8\ub294_": 7363, "\uc815\uc0c1\uc740_": 7364, "\u571f": 7365, "\uc774\uc804\uc744_": 7366, "rol": 7367, "\u521d": 7368, "\ub4dd\uc810\uc774_": 7369, "\u7fd2": 7370, "\u6b4c": 7371, "\u53d7": 7372, "\uff08": 7373, "\uac70\ub9ac\uba70_": 7374, "\ubee5": 7375, "\uca50": 7376, "\ub178\ub825\uc5d0_": 7377, "\ud3a9": 7378, "\uc999": 7379, "2013\ub144\ubd80\ud130_": 7380, "2011\ub144\uc5d0_": 7381, "\ub315": 7382, "\u70ba": 7383, "\ud504\ub791\uc2a4\uc5d0_": 7384, "\uc11c\ube44\uc2a4\uc640_": 7385, "\uc600\ub2e4\uba74_": 7386, "\uc2dc\ub300\ub85c_": 7387, "\u8a9e": 7388, "\u96c4": 7389, "\u3053": 7390, "399": 7391, "\ub7a0": 7392, "131": 7393, "\u826f": 7394, "ast_": 7395, "\uc870\uc120\uc740_": 7396, "\ud655\uc815\ud55c_": 7397, "\ucc28\uc774\ub098_": 7398, "\ubb34\ub9ac_": 7399, "\ubc1c\uc804\uc758_": 7400, "460": 7401, "\uc5ed\uc0ac\uc5d0\uc11c_": 7402, "\uc5f0\ub77d_": 7403, "\uc678\uad6d\uc5d0_": 7404, "\uc0e8": 7405, "\u66f9": 7406, "\uc5f0\uad6c\uc758_": 7407, "390": 7408, "\ub2f4\ub2f9\ud588\ub2e4": 7409, "\uc815\uce58\ub294_": 7410, "5500": 7411, "\uc720\uc9c0\ud558\uba70_": 7412, "\ub3c4\uc804\ud588\ub2e4": 7413, "\u7528": 7414, "\uad6d\ubc29_": 7415, "\ubc14\ub2e4\uac00_": 7416, "\ub2ec\ub77c\uba70_": 7417, "\ud589\uc815\ubd80\uc758_": 7418, "\uc18c\ud504\ud2b8\uc758_": 7419, "\ubcf4\uc774\ub358_": 7420, "\u50b3": 7421, "\ucc3e\uc544\ub0b4": 7422, "\ub118\uc5b4\uc57c_": 7423, "\u958b": 7424, "\ub370\uc774\ub294_": 7425, "\uc5f0\uae30\uc640_": 7426, "\uba54\uc774_": 7427, "\ubd88\uc548\uc774_": 7428, "\uc774\ub8e8\uc5b4_": 7429, "\uc774\uc57c\uae30\uc5d0_": 7430, "rim": 7431, "235": 7432, "\uc3df\uc544_": 7433, "\ub524": 7434, "\ub3d9\ubb3c\uc774_": 7435, "\uc81c20": 7436, "\u4fee": 7437, "\ub819": 7438, "\uc7a4": 7439, "\ub3d9\uc6d0\uc758_": 7440, "ere_": 7441, "\uad6d\uc81c\uae30": 7442, "\uc5cc": 7443, "\uad6c\uc131\uc5d0_": 7444, "\uc601\uad6d\uc774_": 7445, "\uc774\uc0ac\ud68c": 7446, "\u5e38": 7447, "\ud504\ub9ac\ubbf8\uc5b4_": 7448, "\uacb0\uc815\uc73c\ub85c_": 7449, "\uc120\ubc1c\uc744_": 7450, "\uac00\uc815\uc5d0_": 7451, "\uc167": 7452, "\uc5e5": 7453, "\u00fa": 7454, "\u308b": 7455, "\uc778\uc0ac\uc5d0_": 7456, "\uac04\ub2e4_": 7457, "\uae30\ub300\ud574": 7458, "\uaecc": 7459, "\uc81c2_": 7460, "\uad00\ub9ac\uc640_": 7461, "\uc790\uc720\uc758_": 7462, "\ub1f0": 7463, "\u767e": 7464, "\ud1b5\uc2e0\uc744_": 7465, "1\ub144\uae4c\uc9c0_": 7466, "\ud68c\uc0ac\uc774\ub2e4": 7467, "\ub370\uc774\uc5d0_": 7468, "\ucb48": 7469, "\u4f50": 7470, "\u61c9": 7471, "\u0437": 7472, "\uc804\ubb38\uac00\uc758_": 7473, "\u90ce": 7474, "\uc774\uc0ac\uac00_": 7475, "\uc2dc\ub3c4\ub294_": 7476, "\uc720\ub9ac\uac00_": 7477, "\u338e": 7478, "2013\ub144\uc5d0_": 7479, "2\ucc28\ub840": 7480, "\ud000": 7481, "22\ub144": 7482, "\uc870\uc815\uc758_": 7483, "\ud295": 7484, "\u5fd7": 7485, "\uc2dc\ucf30\ub2e4\ub294_": 7486, "\uacbd\uae30\ub2e4": 7487, "\ub3d9\uc6d0\uc774_": 7488, "\u9020": 7489, "\uae08\uc9c0\ub97c_": 7490, "\u9673": 7491, "\ub790\ub2e4\uace0_": 7492, "\ub2c8\uc544\ub294_": 7493, "\uad6d\ud68c\uc758\uc6d0\uc744_": 7494, "\uc81c14": 7495, "\u33a2": 7496, "\u8655": 7497, "\uc608\uc0c1\uc774_": 7498, "\u9249": 7499, "\uae30\uc790\uc5d0\uac8c_": 7500, "\ub4dd\uc810\uc740_": 7501, "\uc778\uc0ac\uc640_": 7502, "2\ub144\uae4c\uc9c0_": 7503, "\ubd24\ub2e4\uace0_": 7504, "\uc2a4\ucf00_": 7505, "\ub9c8\ubb34\ub9ac\ub97c_": 7506, "\u52d9": 7507, "\uc9c0\uad6c\uac00_": 7508, "\ub9ac\uc2a4\ud0c0": 7509, "\uc2f6\ub2e4\uba74_": 7510, "\uc628\ub2e4\uba74_": 7511, "\uc870\uc0ac\uc5c5\uccb4_": 7512, "\uc2dc\uc2a4\ud2b8\ub97c_": 7513, "\uc870\uc0ac\ud68c\uc0ac_": 7514, "\ub0a8\uc544\uc2dc\uc544_": 7515, "\u2606": 7516, "\uc84c\ub2e4\uac00_": 7517, "\ubd80\uc778\uc744_": 7518, "\ub0a8\uc544\uc2dc\uc544": 7519, "\uc784\uba85_": 7520, "\ub800\ub2e4\ub294_": 7521, "\uad6c\uc131\uc740_": 7522, "\ubd88\uc548\uc815\ud55c_": 7523, "\u5178": 7524, "\ubcf4\ub3c4\ub85d_": 7525, "\u61b2": 7526, "\u9032": 7527, "\u0633": 7528, "\uba71": 7529, "\ud55c\ub098\ub77c_": 7530, "\u6d66": 7531, "\ubd80\ub3d9\uc758_": 7532, "\ud604\uc9c0\uc758_": 7533, "\uc77c\uae4c_": 7534, "\uc2ad": 7535, "2012\ub144\uae4c\uc9c0_": 7536, "\ubcf4\uc600\ub2e4\uace0_": 7537, "\ucac4": 7538, "\u3160": 7539, "\u8ce2": 7540, "\u03c3": 7541, "\uc0ac\ub77c_": 7542, "\uc641": 7543, "\uc0c5": 7544, "\uce21\uba74\uc5d0_": 7545, "\uc5d0\uc774\ubbf8": 7546, "\uff3d": 7547, "\uc2a4\ud2b8\ub9ac\uc544\uc758_": 7548, "ore_": 7549, "\u529b": 7550, "\uac00\ub9ac\uace0_": 7551, "\u79c0": 7552, "1949": 7553, "21\ub144": 7554, "\uc9ca": 7555, "\u5bcc": 7556, "\ud058": 7557, "\ubed1": 7558, "\ub9c8\ubb34\ub9ac\ub85c_": 7559, "\uc6b4\uc601\uc758_": 7560, "\uae30\ub300\ub294_": 7561, "\uc9c0\uc9c0\ub3c4_": 7562, "\u58fd": 7563, "\uc6e8\uc774\uac00_": 7564, "\u30c9": 7565, "let_": 7566, "ig_": 7567, "\u5fa1": 7568, "\uc5b4\uc694_": 7569, "\ud141": 7570, "\ud1b5\ud654\uac00_": 7571, "\ubd84\uc704_": 7572, "\u7533": 7573, "\u4e03": 7574, "\uc2b9\ubd80\uc758_": 7575, "2600": 7576, "eren": 7577, "\uc2dc\uc2a4\ud2b8_": 7578, "\u5949": 7579, "\ub10b": 7580, "\u30b7": 7581, "\ubb34\ub9ac\ub97c_": 7582, "299": 7583, "23\ub144": 7584, "\u5f62": 7585, "\uc804\uad6d\uc774_": 7586, "\ub9b0\ub2e4\uba74_": 7587, "\uae30\uc0ac\uc640_": 7588, "\ud0b5": 7589, "\uae30\uc790\ub4e4\uc744_": 7590, "\uc870\uae08\uc774_": 7591, "\u338d": 7592, "\u6a4b": 7593, "\u9bae": 7594, "\uc778\uc0ac\ub85c_": 7595, "\uc5b5\uc6d0\uc740_": 7596, "\ucf74": 7597, "\ub17c\uc758\ud55c_": 7598, "\uc0dd\ud65c\uc6a9": 7599, "\u8c9e": 7600, "\u0410": 7601, "\u6e56": 7602, "2014\ub144\uc5d0_": 7603, "\uc815\ub3c4\ub85c": 7604, "\u526f": 7605, "\u5de5": 7606, "\uc6dc": 7607, "6500": 7608, "\u5f18": 7609, "\uc2a4\ud398\uc774\uc2a4_": 7610, "\uc790\uce58_": 7611, "\uc815\ub2f9\uc744_": 7612, "1948": 7613, "\u5f90": 7614, "\ubc1c\uc804\uc774_": 7615, "rom_": 7616, "\u30bf": 7617, "\ubcf8\ub2e4\ub294_": 7618, "\u5712": 7619, "\uc9c0\uc6d0\uc73c\ub85c_": 7620, "\ub410\ub2e4\uba74_": 7621, "228": 7622, "\ub2e8\uacc4\uac00_": 7623, "\ubca0\ub974_": 7624, "\uc2b5\ub2c8\ub2e4_": 7625, "\uae30\ub2e4_": 7626, "\uc2a4\ud398\uc774\uc2a4": 7627, "\u96fb": 7628, "\u00ec": 7629, "\u52dd": 7630, "\uc0db": 7631, "201": 7632, "\ub514\uc9c0_": 7633, "\u306b": 7634, "\u4f8d": 7635, "\ub274\uc2a4\ub85c_": 7636, "\uc408": 7637, "\u7523": 7638, "\ub178\ub825\uacfc_": 7639, "erin": 7640, "\uc218\uc218\ud55c_": 7641, "\ube0c\ub77c_": 7642, "\u304c": 7643, "\uc958": 7644, "\uad00\ub9ac\uc758_": 7645, "\uc815\ub2f9\uc740_": 7646, "\uc2dc\ud589\uc744_": 7647, "\uc654\ub2e4\uac00_": 7648, "\u4efb": 7649, "\ubcf4\ub3c4\uc640_": 7650, "\ucc21": 7651, "\u73fe": 7652, "\u03ba": 7653, "2100": 7654, "\uc218\ud589\uc744_": 7655, "\uc3df\uc544\ub0b4": 7656, "\u95dc": 7657, "\u306f": 7658, "\u6578": 7659, "\uc81c\uc678_": 7660, "\uc704\uc6d0\uc5d0_": 7661, "\u52a0": 7662, "ral_": 7663, "\ub098\uc654\ub2e4\ub294_": 7664, "\uad6d\uc815\uc744_": 7665, "\u8001": 7666, "\u4f4d": 7667, "\ud2b8\ub9ac\uc2a4_": 7668, "\uc9c0\uad6c\ub294_": 7669, "\ud76c\uc0dd_": 7670, "2015\ub144\uc5d0_": 7671, "\ubd88\uad6c_": 7672, "24\ub144": 7673, "\uc5b8\uae09_": 7674, "\ubc27": 7675, "\ubc18\ub300\ud55c\ub2e4": 7676, "\ud17c": 7677, "\uc99d\uac00\ub97c_": 7678, "\ud14c\uc778": 7679, "\uc544\uc2dc\uc544\ub098_": 7680, "\uc784\ub300\ub97c_": 7681, "\u7af9": 7682, "\u60e0": 7683, "\uc0ac\uc9c4\uc758_": 7684, "\uc870\uc815\uc740_": 7685, "\u9054": 7686, "2012\ub144\uc5d0\ub294_": 7687, "\uc7ac\ubbf8_": 7688, "\ud504\ub791\uc2a4\ub97c_": 7689, "\ub0ac\ub2e4_": 7690, "\ud310\ub2e8\uc740_": 7691, "\ub178\ub3d9\uc744_": 7692, "\u5f9e": 7693, "\ud50c\ub808\uc774\uc758_": 7694, "\u3134": 7695, "\ucc57": 7696, "\ub09c\ub2e4\uba74_": 7697, "\u9ee8": 7698, "\u3042": 7699, "\uc804\uae30\uac00_": 7700, "\uc774\uc0ac\ud68c\ub97c_": 7701, "\u51fa": 7702, "\ub4dc\ub9ac\uc9c0_": 7703, "\ub808\uc774\ub2e4": 7704, "\ud754\ub4e4\uace0_": 7705, "\uac10\uc0ac\ud55c_": 7706, "\uc9c1\uc7a5\uc5d0\uc11c_": 7707, "ras": 7708, "\u041a": 7709, "\uc694\uad6c\ub294_": 7710, "\uc720\uc9c0\ud558": 7711, "\ubd88\uac00\ub2a5\ud558\ub2e4\ub294_": 7712, "21\ub9cc": 7713, "\u53f3": 7714, "ole": 7715, "\ucc28\uc9c0_": 7716, "\u8af8": 7717, "\ud6c5": 7718, "\uc3df\uc544\ub0b4\uace0_": 7719, "\uac70\ub9ac\uace0_": 7720, "\uc18c\ud504": 7721, "\ubc09": 7722, "\u5510": 7723, "\ub5c4": 7724, "\ub9cc\ub4e4\uc5c8\ub2e4\ub294_": 7725, "\uc544\ub2c8\uc544": 7726, "\u533a": 7727, "\uc58f": 7728, "5\ub144\uae4c\uc9c0_": 7729, "\u0445": 7730, "\uc778\uc0ac\uc758_": 7731, "1946": 7732, "eral": 7733, "\ub124\uc774\ub8e8_": 7734, "\u5ef6": 7735, "\ubc18\ub300\uac00_": 7736, "\ub838\ub2e4\uac00_": 7737, "22\ub9cc": 7738, "\u6cc9": 7739, "\ud589\uc815\ubd80\uac00_": 7740, "\u7368": 7741, "\uae30\ub300\ud574_": 7742, "2013\ub144\uc5d0\ub294_": 7743, "\ub4dc\ub9ac_": 7744, "\uc785\uc7a5\uacfc_": 7745, "\uc544\ub2c8\uc544_": 7746, "\uc628\ub2e4\uace0_": 7747, "\u8d77": 7748, "\u82e5": 7749, "\u5370": 7750, "2011\ub144\uc5d0\ub294_": 7751, "\ud22c\uc790\ub85c_": 7752, "\ube0c\ub9ac\uc9c0_": 7753, "oro": 7754, "\u540e": 7755, "\uc5b5\uc6d0\uacfc_": 7756, "\uc804\uc790\uc640_": 7757, "\ud6c4\ubcf4\ub3c4_": 7758, "\uc704\uc548_": 7759, "\uc174": 7760, "\ub4f1\uc7a5\uc73c\ub85c_": 7761, "\uae30\uc790\ub4e4\uc740_": 7762, "\ub31c": 7763, "\uc774\uc0c1\uc5d0_": 7764, "\uc870\uc120\uc744_": 7765, "\u1820": 7766, "\ubcf4\ub3c4\ub85c_": 7767, "\ub3c4\uc804\uc774_": 7768, "\ud655\uc2e4\uc2dc": 7769, "\u30de": 7770, "\ub1fd": 7771, "\uafb9": 7772, "2015\ub144\uae4c\uc9c0_": 7773, "\uc0c1\ub300\uc5d0_": 7774, "\ubbc8": 7775, "\ubd80\uc815\ubd80": 7776, "\ucd10": 7777, "\u7a2e": 7778, "\u3064": 7779, "\ud0a4\uc2a4\uac00_": 7780, "\u89e3": 7781, "\ub9ac\uc2a4\ub97c_": 7782, "\u694a": 7783, "\u6c23": 7784, "\ubd80\uc9c4\uc758_": 7785, "\uac00\uc815\uc774_": 7786, "3200": 7787, "\ub797": 7788, "\u656c": 7789, "\uc601\uc0c1\uc758_": 7790, "2014\ub144\ubd80\ud130_": 7791, "\ub4e4\uc5c8\ub2e4\ub294_": 7792, "\uc81c\uacf5\uc744_": 7793, "\uac00\uc9c0\uc9c0_": 7794, "\ud544\uc694\ud558\ub2e4\uba74_": 7795, "218": 7796, "\u624b": 7797, "\uc758\uc0ac\uc5d0_": 7798, "215": 7799, "\uce74\ub4dc\uc5d0_": 7800, "\ub9ac\uc2a4\ud06c_": 7801, "\ud22c\uc790\uc640_": 7802, "\ud615\uc131_": 7803, "\uc2dc\ud2f0\uc98c": 7804, "\u982d": 7805, "\uc7a5\uba74\uc5d0_": 7806, "\uc9c1\uc6d0\uc73c\ub85c_": 7807, "2800": 7808, "\uac00\uc218\ub97c_": 7809, "\ubcf4\uc774\uace0": 7810, "\uadf8\ub9ac\uba70_": 7811, "\uc774\ud558\ub2e4": 7812, "\ucda7": 7813, "\uc878\uc5c5\uc744_": 7814, "\u8a69": 7815, "3600": 7816, "\uc870\uc0ac\uc758_": 7817, "ile_": 7818, "\uc804\uad6d\ubbfc": 7819, "\u3066": 7820, "\uc18c\ubc29_": 7821, "\u062a": 7822, "\ub2ec\uc131\uc744_": 7823, "238": 7824, "\uc2dc\uc791\ud588\ub2e4\uace0_": 7825, "\ub370\uc774\ub97c_": 7826, "\uad50\uc218\ub3c4_": 7827, "\uc218\uc0ac\ub85c_": 7828, "\uac2d": 7829, "\uc5f0\uae30\ub150": 7830, "\uc778\ub3c4\ub97c_": 7831, "\u0259": 7832, "\uc733": 7833, "\u706b": 7834, "2700": 7835, "\uac71": 7836, "\ub3c5\uc77c\ub85c_": 7837, "\u5854": 7838, "\uadf8\ub140_": 7839, "\ud50c\ub7ec_": 7840, "\u6c99": 7841, "\ubcf4\uc774\uba74_": 7842, "\uac1c\uc815\uc73c\ub85c_": 7843, "\ub0a8\uc790\ub4e4\uc774_": 7844, "\uc81c1_": 7845, "255": 7846, "\ud589\uc0ac\ud55c_": 7847, "245": 7848, "\ub3c4\uc804\uc740_": 7849, "\uc77c\ubd80\uc5d0_": 7850, "\u60c5": 7851, "\u80fd": 7852, "\u904b": 7853, "\u6881": 7854, "\uc99d\uac00\ub294_": 7855, "\ubd80\uc815\ud55c_": 7856, "\uc804\ud22c\ud45c": 7857, "2300": 7858, "\uc870\uc131\uc744_": 7859, "ora": 7860, "\ud558\uc600\ub2e4\uac00_": 7861, "\u85cf": 7862, "\uac71\uc815\uc740_": 7863, "216": 7864, "\uc720\uc9c0\uc5d0_": 7865, "\ubf1b": 7866, "\u30b8": 7867, "\uac1c\uc778\uc740_": 7868, "\ub9ac\uc2a4\uc640_": 7869, "\ucea5": 7870, "\u03b7": 7871, "\u53bf": 7872, "\u5f97": 7873, "\uc774\uc801\uc740_": 7874, "orat": 7875, "\ubd88\uac00\ub9ac\uc544_": 7876, "\ud37d": 7877, "\u6b21": 7878, "\u56e0": 7879, "\uc77c\uae4c\uc9c0\ub294_": 7880, "\ud574\uc11d_": 7881, "\uc2dc\ucf30\ub2e4\uace0_": 7882, "\uc605": 7883, "\u3058": 7884, "\uc720\uc77c\uc758_": 7885, "\u0412": 7886, "2015\ub144\uc5d0\ub294_": 7887, "\ud0c0\uc774\ub97c_": 7888, "\ub0a8\ubd81\ud55c_": 7889, "\ud57c": 7890, "\ud50c\ub808\uc774\uc5b4\uac00_": 7891, "\ub4dc\ub77c\ub294_": 7892, "\u8b77": 7893, "\uc5ec\uc790\uc640_": 7894, "2014\ub144\uc5d0\ub294_": 7895, "1947": 7896, "\ud654\uc7a5_": 7897, "\u9b5a": 7898, "239": 7899, "\u8c4a": 7900, "\uc0ac\ub77c\uace0_": 7901, "\u7199": 7902, "\ubcf4\uc600\ub2e4\ub294_": 7903, "\ucd95\uad6c\ub2e8": 7904, "\uc870\uc120\uc774_": 7905, "\uc124\uba85\uc740_": 7906, "\ubbf8\ub4dc_": 7907, "\ubafc": 7908, "\u5171": 7909, "\uc57c\uad6c\ub2e8_": 7910, "\uc99d\uac00\uac00_": 7911, "\uacf5\ud56d\uacf5": 7912, "2014\ub144\uae4c\uc9c0_": 7913, "\ub4e4\uc5b4\ub3c4_": 7914, "\ud558\uc6b0_": 7915, "\ud55c\uad6d\uc2dc\uac04_": 7916, "\ub808\uc774\ub294_": 7917, "\u8a31": 7918, "\ub204\ub9ac\ub294_": 7919, "\uacf5\uc2dd\uc744_": 7920, "325": 7921, "\uc138\uc6d4_": 7922, "\ub124\uc774\ub8e8": 7923, "\u7384": 7924, "\ub0a8\uc790\ub85c_": 7925, "\u79cb": 7926, "\uc548\uc804\ub9dd": 7927, "\uc778\uae30\ub2e4": 7928, "\u25a1": 7929, "\u30ec": 7930, "\u5ca1": 7931, "\uac1c\uc815\uc5d0_": 7932, "\u590f": 7933, "\uc544\ub2c8\ub2e4_": 7934, "\u260e": 7935, "\u7d00": 7936, "\ub3c4\ub85c\uc774\ub2e4": 7937, "\u4e9e": 7938, "\ucd9c\uc2dc\uc5d0_": 7939, "\ub790\ub2e4\ub294_": 7940, "214": 7941, "\uc774\uc0ac\ud68c\uc5d0\uc11c_": 7942, "\uc2a4\ud2f0_": 7943, "\u9304": 7944, "\uba54\uc2dc\ub97c_": 7945, "\u4ee5": 7946, "\ubd84\uc11d\uc740_": 7947, "\uc9c0\uc9c0\ud558\uace0_": 7948, "\u2212": 7949, "\ud398\uc774\uc2a4\uac00_": 7950, "\uc774\ud558\ub298": 7951, "\uad49": 7952, "\u2025": 7953, "\ubc08": 7954, "\uc5f0\uae30\ub300\uc0c1": 7955, "\ub2e4\ub974\uace0_": 7956, "\uc778\ub3c4\uc5d0_": 7957, "\ubcf4\uace0\ub3c4_": 7958, "\u2500": 7959, "\u041c": 7960, "yle_": 7961, "\u6bd4": 7962, "\ubd80\uc778\ud55c_": 7963, "\ucc58": 7964, "\u5ca9": 7965, "\u5546": 7966, "\ucc60": 7967, "\uac00\ub9ac\uc758_": 7968, "\ud50c\ub808\uc774\uc5b4\ub294_": 7969, "\uc81c\ubaa9_": 7970, "\uc7b0": 7971, "490": 7972, "\ubc14\ub974_": 7973, "275": 7974, "\u30ab": 7975, "arin": 7976, "ral": 7977, "316": 7978, "\uad6c\uc131\uacfc_": 7979, "\u89f8": 7980, "\u6eaa": 7981, "\u69ae": 7982, "35\ub144": 7983, "\u6a5f": 7984, "\uc601\uc785\uc740_": 7985, "pla": 7986, "\uc544\ub974_": 7987, "\ube44\uc11c\uac00_": 7988, "\uc544\ub098\ub294_": 7989, "\ub0b5": 7990, "\u9e97": 7991, "\uc0bc\uc131\uc804\uc790\uc5d0_": 7992, "\ubc18\ub300\uc5d0_": 7993, "\uc815\ub9ac\uac00_": 7994, "\ub9ac\uc544\ub098_": 7995, "\u5f66": 7996, "\u7403": 7997, "\uc20f": 7998, "\ub0b4\ub824\uace0_": 7999, "\u8607": 8000, "\uc9c1\uc7a5\uc5d0_": 8001, "\u6731": 8002, "\u932b": 8003, "\ube55": 8004, "\u9999": 8005, "\uae30\ub85d\ud588\ub2e4\uace0_": 8006, "\uc5f0\uae30\uc758_": 8007, "\ud754\ub4e4_": 8008, "249": 8009, "\uc714": 8010, "\ubd80\uc0b0\uc744_": 8011, "\u53d6": 8012, "226": 8013, "114_": 8014, "\uceac": 8015, "\u54e1": 8016, "\u7232": 8017, "\u9cf3": 8018, "\ub9ac\uc2a4\ud2b8\uac00_": 8019, "\uc0bc\uc131\uacfc\uc758_": 8020, "\ub098\uc774\uc640_": 8021, "\uf90a": 8022, "\u03b3": 8023, "\u30ed": 8024, "\uac71\uc815\ub3c4_": 8025, "\uc900\ube44\ub294_": 8026, "\ub300\ud55c\ub2e4": 8027, "\ubd48": 8028, "\uc774\uc0ac\ud68c\uc758_": 8029, "\uc601\uad6d\uc744_": 8030, "\ucc3b": 8031, "\uc597": 8032, "\u53c3": 8033, "\u0629": 8034, "2015\ub144\ubd80\ud130_": 8035, "\uc774\uc57c\uae30\uc640_": 8036, "\u0448": 8037, "\uc258": 8038, "\u03c0": 8039, "\uc600\ub2e4_": 8040, "\uad50\ud1b5\uc744_": 8041, "\uba69": 8042, "\u7d50": 8043, "\u5176": 8044, "\uc9c0\ub098\ub3c4_": 8045, "\ubc29\ubb38\uc774_": 8046, "\ucd78": 8047, "\uc0ac\uc774\ub294_": 8048, "\uc9c1\uc6d0\uc5d0_": 8049, "\ud03c": 8050, "\ubd80\ubb38\uc774_": 8051, "\uc558\ub2e4\uba74_": 8052, "48\ub144_": 8053, "\u4e45": 8054, "\ubcf4\ub0c8\ub2e4\uace0_": 8055, "ale_": 8056, "\ubb88": 8057, "\u76ee": 8058, "\u59dc": 8059, "\u76ca": 8060, "\ub418\uc5c8\ub2e4\uac00": 8061, "\uc18c\ud504\ud2b8\uac00_": 8062, "\uac1c\uc778\uacfc_": 8063, "\uc329": 8064, "\ub3d9\ub8cc\ub97c_": 8065, "\ubc14\ub2e4\ub294_": 8066, "\ub3a0": 8067, "\uc774\uc57c\uae30\uc758_": 8068, "\ud53c\ud574\uc57c_": 8069, "227": 8070, "\uc778\uc0c1\uc758_": 8071, "\ubfcd": 8072, "\ud1b5\ud569\uc758_": 8073, "\uc77c\ubd80\ubd84": 8074, "\ub9c8\uc774\uc5b4": 8075, "229": 8076, "\ud22c\uc790\uc758_": 8077, "217": 8078, "\ub36b": 8079, "\u0639": 8080, "\uc218\ub3c4\ub97c_": 8081, "\uc0bc\uc131\uc804\uc790\ub97c_": 8082, "\ud754\ub4e4\uc5b4_": 8083, "\u02d0": 8084, "\ud589\uc0ac\uc640_": 8085, "\u8349": 8086, "\u6ce2": 8087, "\ud53c\ud574\ub3c4_": 8088, "\ub77c\uc774\ub97c_": 8089, "\ubcf5\uc9c0\ub97c_": 8090, "\u3082": 8091, "\u5b66": 8092, "\u3084": 8093, "\uc608\uc815\uc73c\ub85c_": 8094, "\u5883": 8095, "990": 8096, "\ub9cc\ub4e4\uc5c8\ub2e4\uace0_": 8097, "\ubd88\uc548\uc5d0_": 8098, "\uc870\uc9c1\uc6d0": 8099, "9900": 8100, "\u5bdf": 8101, "\u3060": 8102, "\uc2dc\uc2a4\uac00_": 8103, "\ud3ec\uae30\ub97c_": 8104, "\uacbd\uae30\uc5d0\ub294_": 8105, "2\ub9cc\uc6d0_": 8106, "\ub11d": 8107, "\u5340": 8108, "\uc804\uae30\uc758_": 8109, "\ub2ec\uc131\uc5d0_": 8110, "\u5718": 8111, "\u7d71": 8112, "\uc9c0\ub3c4\uc5d0_": 8113, "\ub8f9": 8114, "\uafcd": 8115, "\ub300\uad6c\uc758_": 8116, "246": 8117, "\ud589\uc815\ubd80\ub294_": 8118, "326": 8119, "\ud30c\uc774\ub97c_": 8120, "\ucf85": 8121, "\uc887": 8122, "\uac10\uc18c\ub97c_": 8123, "32\ub144": 8124, "\uc54c\uc544_": 8125, "3300": 8126, "\u9060": 8127, "\u4e01": 8128, "\uad11\uc8fc\uc758_": 8129, "\u7de3": 8130, "\u4f1a": 8131, "\uc574": 8132, "\u79aa": 8133, "\uad6d\ud68c\uc758\uc6d0\uc758_": 8134, "\uae30\ub300\ube44_": 8135, "219": 8136, "\u3137": 8137, "\uc720\ub9ac\uc758_": 8138, "\u7ba1": 8139, "\u908a": 8140, "\u95a3": 8141, "\uacfc\uc815\uc73c\ub85c_": 8142, "\u4fca": 8143, "\u3392": 8144, "\u53f0": 8145, "\u30d5": 8146, "\uc0c1\ub300\ud55c_": 8147, "\uc124\uba85\uc5d0_": 8148, "\uba64": 8149, "\u60e1": 8150, "\uc5ec\ud589\uc0ac_": 8151, "\ud504\ub791\uc2a4\ub85c_": 8152, "\uc9c0\ud558\uace0": 8153, "\uc644\uc131\ub3c4_": 8154, "\u7531": 8155, "\u9f4b": 8156, "\uc131\uc7a5\uc740_": 8157, "\u662d": 8158, "\u937e": 8159, "\u682a": 8160, "\uc120\ubb3c\uc774_": 8161, "\uc81c\uc548\uc740_": 8162, "\uc7a5\uae30\ub97c_": 8163, "\ub9e3": 8164, "\uc9c0\uc9c0\ub9cc": 8165, "\ub450\uc0b0\uc744_": 8166, "\uc120\uc815\uc744_": 8167, "75\ub144_": 8168, "265": 8169, "\u6c60": 8170, "\uae30\uc790\ub85c_": 8171, "\u4e59": 8172, "\u54c1": 8173, "\u5bb9": 8174, "\u6fa4": 8175, "\uacfc\uc815\ub3c4_": 8176, "\u7cfb": 8177, "\u9748": 8178, "\uc548\uc815\uc5d0_": 8179, "\ub118\uc5b4\uac00_": 8180, "\uc6b0\ub9ac\uc5d0_": 8181, "\uc704\uc548\uc744_": 8182, "\u679c": 8183, "\u76e7": 8184, "\ud585": 8185, "\ub385": 8186, "\u5bc6": 8187, "\u0647": 8188, "\ub098\uc628\ub2e4\ub294_": 8189, "\ub098\uc774\ub2e4": 8190, "\u796d": 8191, "\u7891": 8192, "\ub6a4": 8193, "\uc2b9\ub9ac\uc640_": 8194, "\uc790\uc5f0\ub9f9": 8195, "32\ub9cc": 8196, "\uc644\uc131_": 8197, "\uc21f": 8198, "\ud667": 8199, "\uc0ac\uace0\ub3c4_": 8200, "\u907a": 8201, "\u534a": 8202, "\uc218\uc0c1\uc758_": 8203, "\ud789": 8204, "\u4f2f": 8205, "65\ub144_": 8206, "\uc6a4": 8207, "211": 8208, "\ub311": 8209, "\ud2b8\ub9ac\ub97c_": 8210, "\ub514\uc2a4\ucf54": 8211, "\u5c45": 8212, "\ud604\ub300\uc5d0_": 8213, "\u9435": 8214, "\uac1c\uc815\uc774_": 8215, "\u5100": 8216, "\uc9c0\uc801\uc778_": 8217, "\u864e": 8218, "\u03af": 8219, "rich": 8220, "\uae30\uc5c5\uccb4": 8221, "\uc544\uc774\ub2e4": 8222, "\ud55c\ud654\ub97c_": 8223, "\ubbf8\uad6d\ub0b4_": 8224, "\u308f": 8225, "\ub9ac\uc544\uc2a4_": 8226, "2013\ub144\uae4c\uc9c0_": 8227, "\uc0b0\uc5c5\uacc4": 8228, "\u5609": 8229, "\uc600\ub2e4\uac00_": 8230, "\uc778\ub3c4\uc640_": 8231, "\ub543": 8232, "\ubc18\ub300\ud55c_": 8233, "\u985e": 8234, "\ud07d": 8235, "\u5b87": 8236, "\uc8fc\ub3c4\uc5d0_": 8237, "\u53ef": 8238, "\u041f": 8239, "\uac10\uc18c\uac00_": 8240, "\ud611\ub825\uc774_": 8241, "\u9023": 8242, "\ub808\uc774\uc5b4": 8243, "\uc81c\uc870\uc0ac\uac00_": 8244, "\uad6c\uc785\uc744_": 8245, "\u33c4": 8246, "\uc21c\uac04\uc758_": 8247, "\u5668": 8248, "\uc774\uc0ac\ud68c\ub294_": 8249, "\ube84": 8250, "\u5f79": 8251, "2011\ub144\uae4c\uc9c0_": 8252, "\uae30\uc18c\uac1c": 8253, "\u014d": 8254, "\ub0a8\uc790\ub4e4\uc758_": 8255, "\u59d3": 8256, "\uc5ec\uc790\ub4e4\uc774_": 8257, "\ub3c4\uc804\ud574_": 8258, "\ub4dc\ub9ac\uc544_": 8259, "\uc9c0\uc9c0\uac00_": 8260, "237": 8261, "\u4f4f": 8262, "\ubd88\uac00\ub2a5\ud558\ub2e4\uace0_": 8263, "\uc720\uc9c0\uac00_": 8264, "\ubd80\uc9c4\uc740_": 8265, "\u81f3": 8266, "\u690d": 8267, "\u7d14": 8268, "\uc0ac\uacfc\ub294_": 8269, "\ub418\uace0\uc694": 8270, "\uc2dc\ud588\ub2e4\uace0_": 8271, "\u9756": 8272, "\ud14c\uc774\uc9c0_": 8273, "\u57f7": 8274, "\uc2a4\ud3ec_": 8275, "\uba55": 8276, "\uc815\ub9ac\uc5d0_": 8277, "\u8aa0": 8278, "\u652f": 8279, "\ud734\ub300_": 8280, "\ucd9c\uc804\uc740_": 8281, "\ucc3e\uc544\ub0b4_": 8282, "\ub2e4\ub2c8\ub2e4_": 8283, "\uae30\uad00\ub9ac": 8284, "4800": 8285, "224": 8286, "\u82e6": 8287, "3800": 8288, "\ub81d": 8289, "\u5165": 8290, "\u3059": 8291, "\u00e7": 8292, "\u0411": 8293, "\uc4f1": 8294, "\uc790\ub9ac\uc640_": 8295, "\ubc15\uc9c0\uc6d0": 8296, "\u8853": 8297, "\uc18c\ube44\ub294_": 8298, "\u3145": 8299, "44\ub144_": 8300, "233": 8301, "328": 8302, "45\ub144_": 8303, "\u06cc": 8304, "\ud655\ub300\uac00_": 8305, "\u79e6": 8306, "\uc8fc\uc7a5\uc758_": 8307, "\ubdf4": 8308, "\uc720\ub9ac\ub97c_": 8309, "\uc81c\ud55c\ub2e4": 8310, "\u3087": 8311, "\uac70\ubd80\ub97c_": 8312, "375": 8313, "\u6069": 8314, "\ud655\ub300\ub85c_": 8315, "\uc138\uc774\ub2e4": 8316, "\u80e1": 8317, "\u5185": 8318, "\uc5ec\uc790\ub85c_": 8319, "\uacf5\ub3d9\uc758_": 8320, "\u03b2": 8321, "\uc54a\ub2e4\uba74_": 8322, "315": 8323, "248": 8324, "ales": 8325, "\u9115": 8326, "\u4ead": 8327, "\ud504\ub85c\uc758_": 8328, "cou": 8329, "\ubc1c\uc804\ud574_": 8330, "\uc778\uae30\uc640_": 8331, "\ub9ac\ubc84_": 8332, "\u4ea4": 8333, "\u6167": 8334, "\u30ad": 8335, "\uc81c25": 8336, "\ubd88\uad6c\uc18d": 8337, "\u4e39": 8338, "\u2464": 8339, "\uacf5\uc815\uc744_": 8340, "\uc0ac\uc5c5\uccb4": 8341, "rel": 8342, "\uc804\uc790\ucc45": 8343, "\ub4b9": 8344, "33\ub144": 8345, "355": 8346, "31\ub144": 8347, "\uae70": 8348, "\uc774\ub300_": 8349, "\u3393": 8350, "\ub9ec": 8351, "\ub0a8\uc790\uc5d0\uac8c_": 8352, "\ubc14\ub974\uace0_": 8353, "\uc774\uc0ac\uc758_": 8354, "\uc2a4\ud1a0_": 8355, "232": 8356, "\uc6b0\ub824\uace0_": 8357, "\ud558\uc774\uc758_": 8358, "\ud79d": 8359, "\u9918": 8360, "\ucc3e\uc544\ub0c8\ub2e4": 8361, "\ubc97\uc5b4_": 8362, "\u8abf": 8363, "\u7981": 8364, "\ud589\ubcf5_": 8365, "\u03ac": 8366, "\ub9ac\uc2a4\ud2b8\ub85c_": 8367, "\uadf8\ub9ac\uc2a4\ub294_": 8368, "\u5ba4": 8369, "234": 8370, "\u03c5": 8371, "\uc5f0\uae30\ub3c4_": 8372, "\uc204": 8373, "\u00e6": 8374, "\uc0ac\uc5c5\uacc4\ud68d": 8375, "\uc81c\uae30\uac00_": 8376, "\u0456": 8377, "\ub09c\ub2e4_": 8378, "\uc774\uc0c1\uc5d0\uc11c_": 8379, "\u559c": 8380, "\ub15c": 8381, "\ub6f0\uc5b4\uc57c_": 8382, "\ud504\ub85c\ub294_": 8383, "\u6c88": 8384, "\uc774\ub2e4\uac00_": 8385, "\u5c11": 8386, "\uac00\uc9c0\uc5d0_": 8387, "244": 8388, "\ucf24": 8389, "\u062d": 8390, "\uac10\uc0ac\uc5d0_": 8391, "\ubd80\uc0c1\uc758_": 8392, "\uc790\uc5f0\uc744_": 8393, "\ub4d0": 8394, "\ubc8c\uc5b4_": 8395, "\u9326": 8396, "\ud0ef": 8397, "\u7fa4": 8398, "\uc57c\uad6c\ub2e8": 8399, "\ub55c": 8400, "\uc778\ub3c4\ub294_": 8401, "\ud589\ub3d9\uc758_": 8402, "\ubcf4\uc7a5\uc774_": 8403, "\uc6fd": 8404, "\u5fa9": 8405, "\u6649": 8406, "\ubc1c\uc804\uc740_": 8407, "\u70c8": 8408, "\u671f": 8409, "32_": 8410, "\uff5e": 8411, "\u5c40": 8412, "\uc84c\ub2e4\uba74_": 8413, "\uc2dc\uc544\ubc84": 8414, "\uadf8\ub798_": 8415, "\u3063": 8416, "\u9b4f": 8417, "\uc62c\ub790\ub2e4\uace0_": 8418, "335": 8419, "\uc804\ud574\uc8fc": 8420, "\u66f2": 8421, "\uadd3": 8422, "\u67f1": 8423, "\uc544\ud30c_": 8424, "236": 8425, "\ub4e4\uc5b4\uc694": 8426, "\uaf30": 8427, "\u9996": 8428, "\ubc14\uc774\uc5b4": 8429, "\u2027": 8430, "\ub3d9\uc6d0\uc744_": 8431, "\uc9c0\uc9c0\ub3c4\uac00_": 8432, "\uc0ac\uc774\uc790_": 8433, "ist_": 8434, "\u6eab": 8435, "223": 8436, "\uaebd": 8437, "\u9818": 8438, "\ub2c8\ub2e4_": 8439, "\u226b": 8440, "\uac1c\uc778\uc0ac\uc5c5": 8441, "499": 8442, "213": 8443, "\u226a": 8444, "\u03b4": 8445, "329": 8446, "247": 8447, "\u8449": 8448, "\u4e18": 8449, "\ubc1c\uc804\uae30": 8450, "\ubc30\uce58\uac00_": 8451, "\uc74a": 8452, "\uc5ec\ud589\uc0ac": 8453, "\u0446": 8454, "\uc2dc\ub9ac\uc544\uc758_": 8455, "\uc29d": 8456, "\uc9c0\ub3c4\ub294_": 8457, "\ud604\ub300\uc0c1": 8458, "\ud0a4\uc2a4\uc640_": 8459, "34\ub144": 8460, "\uc870\uc0ac\ub85c_": 8461, "oral": 8462, "345": 8463, "\ucff0": 8464, "\uae0d\uc815_": 8465, "\uc77c\ubcf8\uc5b4\ub85c_": 8466, "co_": 8467, "\uc6b4\uc804\uae30\uc0ac_": 8468, "\ub85c\uc774\ub2e4": 8469, "\ubdf8": 8470, "\uac00\uc218\ub294_": 8471, "\u59cb": 8472, "31\ub9cc": 8473, "\u30aa": 8474, "\u00f1": 8475, "\uc5c5\uacc4\ub97c_": 8476, "\uac1c\uadf8\ub97c_": 8477, "\u89d2": 8478, "\uc6b4\uc804\uc790\ub97c_": 8479, "\ucc28\uc9c0\ud558\uac8c_": 8480, "\uc9c0\uc815\uc744_": 8481, "\uad6d\ud68c\uc758\uc0ac": 8482, "\uc218\ub3c4\ub85c_": 8483, "\u4ed9": 8484, "\u8cb4": 8485, "\ub4f1\uc7a5\uc740_": 8486, "\u8868": 8487, "\u63d0": 8488, "\uc90f": 8489, "\uc785\uc7a5\uc73c\ub85c_": 8490, "\u9db4": 8491, "\u8239": 8492, "\u9678": 8493, "\u3088": 8494, "\uc5f0\uae30\ub300\uc0c1_": 8495, "\u820a": 8496, "\uc0dd\uac01\ud55c\ub2e4\uba74_": 8497, "\uadf8\ub9ac\uc2a4\uc640_": 8498, "\uac1c\uc778\uc744_": 8499, "317": 8500, "\uc81c21": 8501, "\u8cc7": 8502, "12\ub9cc_": 8503, "\u6975": 8504, "\ub0a8\uc790\ub4e4\uc740_": 8505, "\uc8fc\ub3c4\ub85d_": 8506, "\u25c8": 8507, "\ubbf8\uc0ac_": 8508, "221": 8509, "\uc774\uc0ac\ud68c\uac00_": 8510, "eral_": 8511, "\uc124\uce58\uac00_": 8512, "\u30b3": 8513, "\ub0b4\ub824\ub294_": 8514, "\uac1c\uc778\uc5d0_": 8515, "\uc608\uc0c1\uc740_": 8516, "\uc788\uc5c8\ub2e4_": 8517, "\u80b2": 8518, "cot": 8519, "\uc81c26": 8520, "\uafc9": 8521, "4200": 8522, "\ub4dc\ub9ac\uba70_": 8523, "\uac1c\uc120\uc758_": 8524, "\uc74c\uc2dd\uc73c\ub85c_": 8525, "\ub098\uc11c\ub3c4_": 8526, "\ucc28\uc774\uc5d0_": 8527, "\uc18e": 8528, "\ucd08\ub4f1_": 8529, "\uc218\uc0ac\uc5d0\uc11c_": 8530, "\uac24\ub7ed\uc2dcS_": 8531, "\uc5ec\uc131\ub3c4_": 8532, "318": 8533, "\ud604\ub300\uac00_": 8534, "\ub9c8\ubb34\ub9ac\uac00_": 8535, "\uc790\ub791_": 8536, "\u514b": 8537, "\u820d": 8538, "\uc5e1": 8539, "\uc778\uc0c1\uc5d0\uc11c_": 8540, "\uac10\uc18c\uc5d0_": 8541, "\uacf5\uc2dd\ud488": 8542, "349": 8543, "\uc22f": 8544, "\u4eca": 8545, "\u9ebb": 8546, "\u7575": 8547, "\u0420": 8548, "\ub77c\uc774\uc5b4_": 8549, "\ud398\uc774\ub294_": 8550, "\ub0ac\ub2e4\uac00_": 8551, "\uc774\uc5b4\ub3c4_": 8552, "\ud55c\uad6d\ubb34": 8553, "\u8d64": 8554, "\u9670": 8555, "\uc2dc\uc791\ud588\ub2e4\ub294_": 8556, "\u68ee": 8557, "\ub098\uc774\uc758_": 8558, "\ucb64": 8559, "\u8f49": 8560, "\ucd5c\uace0\ub97c_": 8561, "\u3051": 8562, "\ud614\ub2e4\uace0_": 8563, "\ud504\ub9ac\uc2a4": 8564, "\u6236": 8565, "\uc815\ub3c4\uc785\ub2c8\ub2e4": 8566, "\u53cb": 8567, "\u591c": 8568, "\u5d0e": 8569, "\u6d0b": 8570, "\u8d8a": 8571, "\ub098\uc628\ub2e4\uace0_": 8572, "\ud4cc": 8573, "\u9f4a": 8574, "\u33ca": 8575, "\ucc98\ub9ac\ub294_": 8576, "\u5c4b": 8577, "\u5ef3": 8578, "\uc2e0\uace0\ub294_": 8579, "cop": 8580, "\uc0ac\ubb34\ub97c_": 8581, "\uc0c8\ub204\ub9ac_": 8582, "\u5354": 8583, "\ub2c8\uc544\uac00_": 8584, "\u6dd1": 8585, "\u5009": 8586, "\uc804\ud22c\uc218\uac00_": 8587, "\ub9ac\uc2a4\uc5d0\uc11c_": 8588, "\u79c1": 8589, "\uac10\uc0ac\uac00_": 8590, "\uad6d\ub0b4\ub294_": 8591, "\u6e2f": 8592, "\ub370\uc774\uc758_": 8593, "\ub0a8\uc131\uc5d0_": 8594, "\ubc18\uc601_": 8595, "\u65bc": 8596, "\ud589\uc815\uc744_": 8597, "\uc9c0\ub098\uc11c": 8598, "231": 8599, "\ub300\uc911\uc5d0_": 8600, "\uc14c": 8601, "\u5ff5": 8602, "\uc131\uacfc\uc758_": 8603, "\ub9f8": 8604, "\u05d9": 8605, "\uc81c\uc870\uac74": 8606, "\u5d07": 8607, "\uacbd\uc601\uc758_": 8608, "\u9632": 8609, "\u7279": 8610, "\ud1b5\uc2e0\uc758_": 8611, "\u54f2": 8612, "\ud558\ub098\ub77c\ub3c4_": 8613, "\u8b49": 8614, "\u0f0b": 8615, "\u6c42": 8616, "\uc6c1": 8617, "\ucd5c\uace0\uc18d": 8618, "\u56b4": 8619, "\uadfc\uac70\ub9ac": 8620, "\uc54a\ub2e4\uac00_": 8621, "\ub158": 8622, "\u30ca": 8623, "\uc18c\uac1c\ub97c_": 8624, "\u6bdb": 8625, "\u041d": 8626, "\u4f9d": 8627, "\uc9c0\ub3c4\uc640_": 8628, "\ud5f9": 8629, "\u745e": 8630, "\uc6e8\uc774\uc640_": 8631, "\u96a8": 8632, "\u672a": 8633, "\u8b8a": 8634, "\ucc39": 8635, "\uc82c": 8636, "\ub118\uc5b4\uc9c4_": 8637, "47_": 8638, "\u7e3d": 8639, "\uc218\uc785\ub2c8\ub2e4": 8640, "\uc715": 8641, "\u5c0a": 8642, "\ub178\ud2b8\ub97c_": 8643, "\uc54c\uc544\ub0b4": 8644, "\u89ba": 8645, "\u03cc": 8646, "\uc778\uc0ac\uc5d0\uc11c_": 8647, "\u30c6": 8648, "\uc62c\ub790\ub2e4\ub294_": 8649, "\ucc28\uc9c0\ud558\uae30_": 8650, "\ud604\ub300\ub294_": 8651, "\u5713": 8652, "\uc870\uc120\uc5d0\uc11c_": 8653, "\u986f": 8654, "\u0161": 8655, "212": 8656, "\u4ef2": 8657, "\ub381": 8658, "\uc81c\uc870\uc0ac\uc758_": 8659, "\uad00\ub9ac\ub85c_": 8660, "\ubc1b\uc544\ub0b4": 8661, "\u7f72": 8662, "\u6b32": 8663, "\ubcf8\ub2e4\uace0_": 8664, "\uacb0\uc815\uc758_": 8665, "3400": 8666, "\uc6e8\uc774\ub97c_": 8667, "\uc778\uc0ac\uac74_": 8668, "\u81f4": 8669, "\uc804\uc790\uc5d0_": 8670, "\u3072": 8671, "\u301c": 8672, "\u623f": 8673, "\uc2dc\uc2a4\ub294_": 8674, "\u30a3": 8675, "\u30ba": 8676, "\ubc14\ub974\ub294_": 8677, "2900": 8678, "\ucc98\ub9ac\uc640_": 8679, "\u71df": 8680, "\u8a66": 8681, "\ucfa8": 8682, "\ubee3": 8683, "42\ub144_": 8684, "\u7db2": 8685, "\uc778\ub2e4\uace0_": 8686, "\u904e": 8687, "\ub3c4\uc804\ud574": 8688, "\u4ef6": 8689, "\uc548\uc804\uc774_": 8690, "\uc774\uc5b4\uac00_": 8691, "\uadc8": 8692, "\u9686": 8693, "\uac10\uc18c\ub294_": 8694, "\ub808\uc774\uac00_": 8695, "\u8521": 8696, "\u5cf0": 8697, "\uc6b4\uc804\uc5d0_": 8698, "\ubc1b\uc544\ub0c8\ub2e4": 8699, "\uc81c24": 8700, "\u7576": 8701, "\uc28c": 8702, "\u5750": 8703, "\u7d04": 8704, "46\ub144_": 8705, "ril": 8706, "\uc218\uc0c1\uc740_": 8707, "\u0131": 8708, "4600": 8709, "\uc774\ud558\uc600\ub2e4": 8710, "\ubc18\ub300\ud55c\ub2e4\ub294_": 8711, "15\ub144\uac04_": 8712, "\ud569\ub2c8\ub2e4_": 8713, "\ub808\uc774\uc758_": 8714, "\ubcf4\ud638\uac00_": 8715, "\uc758\uc0ac\ub85c_": 8716, "\u6d69": 8717, "\u30e0": 8718, "\ub2e4\ub974_": 8719, "\u00e2": 8720, "\ud558\ub098\uc774\uba70": 8721, "\uc88b\ub2e4_": 8722, "\ud2b8\ub9ac\uc2a4": 8723, "\u8c61": 8724, "\ub274\uc2a4\ud0c0": 8725, "\ud3ff": 8726, "\u8fb2": 8727, "\u773c": 8728, "\u30cb": 8729, "\uc2dc\ub3c4\uc5d0_": 8730, "\u5893": 8731, "\u03c9": 8732, "\ub4f1\uc7a5\uc744_": 8733, "\u30d0": 8734, "\ub134": 8735, "\ube0c\ub77c\ub294_": 8736, "\u062c": 8737, "\u0436": 8738, "\uff1d": 8739, "\ucd94\uc9c4\uc774_": 8740, "336": 8741, "\u8cc0": 8742, "425": 8743, "\u5983": 8744, "\u7267": 8745, "\uc2a4\ub9c8\ub974": 8746, "\u805e": 8747, "\ud558\uc790\uac00_": 8748, "\ub300\ud68c\uc758": 8749, "346": 8750, "324": 8751, "\ub514\uc2a4\ub294_": 8752, "\u03b8": 8753, "\u6ec5": 8754, "\uc130\ub2e4\uace0_": 8755, "\ub2f9\uc120\uc774_": 8756, "\u821e": 8757, "\ud614\ub2e4\ub294_": 8758, "\uad6d\ubbfc\uc8fc\ud0dd": 8759, "337": 8760, "\u8db3": 8761, "\u30a6": 8762, "\uc5ec\uae30\uac00_": 8763, "\ubc30\uce58\ub294_": 8764, "\uc784\uba85\uc744_": 8765, "\u8077": 8766, "\ucc54\ud53c\uc5b8\uc2a4_": 8767, "348": 8768, "\u96e8": 8769, "\ub204\uad6c\ub294_": 8770, "\uc120\uc815\uc5d0_": 8771, "\ub2ec\ub77c\uc774_": 8772, "\uc81c23": 8773, "\uc5c8\uace0\uc694": 8774, "\uc774\ub8e8_": 8775, "ela": 8776, "\u90a3": 8777, "\ub9ce\ub2e4_": 8778, "\uc778\uae30\uc758_": 8779, "\u85a9": 8780, "\ud615\uc131\uc744_": 8781, "\u5211": 8782, "\ud504\ub9ac\uc2a4\ud0c0": 8783, "338": 8784, "\ub204\ub9ac_": 8785, "339": 8786, "\u30b0": 8787, "\uc608\uc815\ubcf4\ub2e4_": 8788, "\uc6b0\uc8fc\ub97c_": 8789, "\ub9ce\uc558\ub2e4\uace0_": 8790, "\ud558\uc600\ub2e4_": 8791, "\u537f": 8792, "\ub17c\uc758\ud574_": 8793, "1440": 8794, "\u30e3": 8795, "\uc7bf": 8796, "\uc870\uc815\uc73c\ub85c_": 8797, "\u9152": 8798, "\uc0ac\uc774\uc5b4": 8799, "\u6a39": 8800, "\uc0d9": 8801, "\ub9ac\uc2a4\ud2b8\uc758_": 8802, "49\ub144_": 8803, "\ucc1d": 8804, "\u653e": 8805, "\u666e": 8806, "\uc720\ub9ac\uc640_": 8807, "\u0641": 8808, "\uc130\ub2e4\ub294_": 8809, "\uc5f0\uae30\uc790\uac00_": 8810, "\u5b8c": 8811, "3700": 8812, "\ud574\ub2f9\ud588\ub2e4": 8813, "\uac8c\uc2dc\ud588\ub2e4": 8814, "\uc218\uc0c1\uc5d0_": 8815, "\uc9f0": 8816, "\uc6b4\uc804\uc774_": 8817, "\ub300\uad6c\ub294_": 8818, "\uace0\ub4f1_": 8819, "\uc601\uc5b4\uac00_": 8820, "22\ub144\uae4c\uc9c0_": 8821, "\ud615\uc131\uc5d0_": 8822, "\uacbd\uc601\uc774_": 8823, "313": 8824, "\uc720\ud1b5\uc744_": 8825, "\uacb0\uacfc\uc758_": 8826, "\u5947": 8827, "\u25ce": 8828, "\uc774\uc0ac\uc640_": 8829, "\u98df": 8830, "\u308c": 8831, "\u1828": 8832, "\uc778\ub3c4\uac00_": 8833, "47\ub144_": 8834, "ri_": 8835, "\uad6d\ud68c\uc758\uc6d0\uc740_": 8836, "\ub098\ub77c\uace0_": 8837, "\u7bc4": 8838, "\u8072": 8839, "\u4ea6": 8840, "\u30df": 8841, "\ub098\uc628\ub2e4\uba74_": 8842, "\uc6b4\uc601\uc740_": 8843, "\ub098\uc130\ub2e4\uac00_": 8844, "314": 8845, "\ud604\uc9c0\uc2dc\uac04_": 8846, "\uc628\ub2e4_": 8847, "\ub189": 8848, "\uc479": 8849, "\u5f8b": 8850, "\u9091": 8851, "\u0642": 8852, "\uc62c\ub838\ub2e4\uace0_": 8853, "\u093e": 8854, "\ubcc0\ud638\ub97c_": 8855, "\u6e96": 8856, "\ub2f5\ud588\ub2e4\uace0_": 8857, "\u30a8": 8858, "\ub300\uad6c\uc5d0_": 8859, "\uc218\uc0c1\ud0dc": 8860, "\uc6b4\uc804\uae30\uc0ac": 8861, "\u9ce5": 8862, "33_": 8863, "319": 8864, "\uac15\uc870_": 8865, "\uc778\uae30\ub3c4_": 8866, "\ub3d9\uc6d0\uacfc_": 8867, "\u74b0": 8868, "\u54b8": 8869, "\u5152": 8870, "327": 8871, "\u9ed1": 8872, "\uc2dc\ud588\ub2e4\ub294_": 8873, "\uac8c\uc774\uc9c0_": 8874, "\uc81c29": 8875, "\uc314": 8876, "\u30ce": 8877, "\uc81c27": 8878, "\uc62c\ub9ac\ubc84_": 8879, "\ud604\ub300\ud654": 8880, "\u4e5f": 8881, "\uc6d4\ub4dc\ub294_": 8882, "\ubd88\ud3b8_": 8883, "323": 8884, "\u60f1": 8885, "\u597d": 8886, "\u6b64": 8887, "\u6de8": 8888, "\u725b": 8889, "\u0414": 8890, "\ubcf4\ud638\uc758_": 8891, "\ud655\ub300\ud55c_": 8892, "\ub808\uc774\ub2e4_": 8893, "37_": 8894, "\ucc28\uc9c0\ud558\uba74\uc11c_": 8895, "\ub370\uc77c_": 8896, "\ucef9": 8897, "\ud22c\uc785\uc744_": 8898, "\u6226": 8899, "\u52f3": 8900, "\uc5d0\uc774\uc9c0_": 8901, "\uc8fc\ub3c4\ub97c_": 8902, "\u5c3e": 8903, "\uc5f0\uae30\uc790\uc758_": 8904, "\u6597": 8905, "\uc62c\ud574\ub97c_": 8906, "\uac8c\uc7ac_": 8907, "\ud6d1": 8908, "ror": 8909, "\uac54": 8910, "\u975c": 8911, "\u8846": 8912, "\u79b9": 8913, "\uc0b4\uc544\ub098\uace0_": 8914, "\uc120\ubc1c\uc804_": 8915, "\uc218\uc0c1\uc774_": 8916, "\u7f6a": 8917, "\u30b5": 8918, "\u9078": 8919, "\u305b": 8920, "4400": 8921, "\uc9c0\ub098\uc11c_": 8922, "\ube64": 8923, "\ub2e4\ub2c8\ub2e4\uac00_": 8924, "\ud558\ub77c\uba70_": 8925, "\u71d5": 8926, "\uc77c\ubd80\uc640_": 8927, "\u84ee": 8928, "\u606d": 8929, "aro": 8930, "\u30c1": 8931, "aris": 8932, "347": 8933, "\uad11\uc8fc\uc5d0_": 8934, "\uae30\uc18c\uc720": 8935, "429": 8936, "\ud655\ub300\ub294_": 8937, "\u7fbd": 8938, "428": 8939, "\u6e05": 8940, "\u6d19": 8941, "\u30d6": 8942, "\uc9c0\uc801\uc740_": 8943, "\uc544\ub4e4\uc5d0_": 8944, "\ub808\uc774\ub97c_": 8945, "\uc81c28": 8946, "\u5c09": 8947, "\ubcf4\ub0c8\ub2e4\ub294_": 8948, "\ud558\ub098\ub77c\uace0_": 8949, "\ub3c5\uc77c\uc5b4_": 8950, "\ud14c\uc774_": 8951, "\ube0c\ub9ac\uc2a4": 8952, "\u8863": 8953, "\u9650": 8954, "\uac00\uc815\uc740_": 8955, "\ucd9c\uc2dc\ub294_": 8956, "\ud589\uc815\uc758_": 8957, "\ub77c\uc774\ub294_": 8958, "\u6df3": 8959, "\u0634": 8960, "\u968a": 8961, "\u6cf3": 8962, "\uce5c\uad6c\uc5d0_": 8963, "112_": 8964, "242": 8965, "\u5442": 8966, "\uac15\ud654\uac00_": 8967, "\uc81c\uae30\uc5d0_": 8968, "\ub4dc\ub9ac\uc2a4": 8969, "\u6df5": 8970, "\u5922": 8971, "\u6df1": 8972, "\uc2dc\ub3c4\ub85c_": 8973, "\u5ba2": 8974, "\u4f55": 8975, "\u5f4c": 8976, "\u572d": 8977, "\uc785\ub2c8\ub2e4_": 8978, "\ubc0f": 8979, "\uc5ec\uc790\uc5d0\uac8c_": 8980, "\uacf5\uc2dd\uc774_": 8981, "\u8a08": 8982, "\u65b7": 8983, "\u540f": 8984, "\uc0b0\uc5c5\uccb4": 8985, "\u3092": 8986, "\ub9ac\uc2a4\uc5d0_": 8987, "\uc870\uc9c1\uc6d0_": 8988, "\u5747": 8989, "\uc3df\uc544\ub0b4\ub294_": 8990, "\uc870\uc131\uc5d0_": 8991, "roun": 8992, "\u308d": 8993, "\u3067": 8994, "\u7cbe": 8995, "42\ub9cc": 8996, "\ud73c": 8997, "\u8b66": 8998, "\u8caa": 8999, "\ucc3e\uc544\ub0b4\ub294_": 9000, "\ud658\uacbd\uc601\ud5a5": 9001, "55\ub144_": 9002, "0000": 9003, "\ud558\uc774\ub294_": 9004, "\u7d05": 9005, "\u5ea7": 9006, "\uc774\uc5c8\ub2e4_": 9007, "\u8981": 9008, "\ub2f3": 9009, "\u7ffc": 9010, "\ub274\uc2a4\uc5d0\uc11c_": 9011, "\uc81c22": 9012, "\u0413": 9013, "\uc778\uac04\uc5d0_": 9014, "\uc0ac\ud68c\ubcf5": 9015, "\u8f14": 9016, "ler_": 9017, "\ub418\uc5c8\ub2e4_": 9018, "\u6a1e": 9019, "alen": 9020, "\ud655\ub300\ud55c\ub2e4": 9021, "455": 9022, "\uadf8\ub9ac\uc2a4\uac00_": 9023, "\uae30\uc5c5\uccb4_": 9024, "\uaed0": 9025, "\uff02": 9026, "\u00f9": 9027, "\ud161": 9028, "\u98db": 9029, "\u6539": 9030, "\u7559": 9031, "\uc911\ub2e8\uc5d0_": 9032, "\ub289": 9033, "\u30d7": 9034, "\u5de8": 9035, "\u83e9": 9036, "\ub418\uc5b4\ub3c4_": 9037, "\ud588\ub2e4\uac00": 9038, "\uc0ac\uc774\uc775": 9039, "\ud288": 9040, "\uce28": 9041, "\u5bb3": 9042, "\ud30c\uc774\ub294_": 9043, "\uc774\uc5c8\ub2e4\uac00_": 9044, "\uc778\ub3c4\ub85c_": 9045, "\uc54a\uc558\ub2e4_": 9046, "ola": 9047, "coun": 9048, "\u57df": 9049, "\uc6b0\uc8fc\uc5d0_": 9050, "\ud55c\uad6d\uc815\ubcf4": 9051, "\ub178\ub3d9\uc758_": 9052, "\u6301": 9053, "3100": 9054, "\uad6c\uc870\uc0ac_": 9055, "\uc7e4": 9056, "\u544a": 9057, "\uc54a\ub2e4_": 9058, "475": 9059, "\u85e9": 9060, "\u8f09": 9061, "\uc774\uc0ac\ud68c\uc5d0_": 9062, "\u73cd": 9063, "\uc774\ub978\ub2e4\uace0_": 9064, "\ub54c\ubb38_": 9065, "\uc544\ub4e4\ub3c4_": 9066, "\u30c0": 9067, "\u654f": 9068, "\u5dd6": 9069, "\ud398\uc774\ub97c_": 9070, "\uae30\ub300\ud55c_": 9071, "321": 9072, "\u5f3a": 9073, "\u1873": 9074, "\uc2f6\ub2e4_": 9075, "\u8d85": 9076, "\ub2f9\uc120\uc744_": 9077, "\uc5c6\uc5c8\ub2e4_": 9078, "\ubd80\uc0c1\ub2f9\ud55c_": 9079, "\uc218\uc0ac\ud55c_": 9080, "\uc2dc\uc2a4\uc758_": 9081, "\uc8a1": 9082, "\ubcf5\uc9c0\uc815\ucc45": 9083, "\u90ed": 9084, "\u3013": 9085, "\uae30\uad00\ub9ac_": 9086, "\u904a": 9087, "11\ub9cc_": 9088, "\ud611\ub825\uc5d0_": 9089, "\u50e7": 9090, "\u91cf": 9091, "rest": 9092, "312": 9093, "\u9805": 9094, "\u00c9": 9095, "\ud3ed\ubc1c\uc744_": 9096, "\uc548\uc815\uc774_": 9097, "\u990a": 9098, "\u96e2": 9099, "\u677f": 9100, "\ud2f0\uc98c": 9101, "\u8302": 9102, "\u8ca1": 9103, "\u58c7": 9104, "\u01ce": 9105, "\uc2dc\uc544\ud30c_": 9106, "\uc120\uc218\uc0c1\uc744_": 9107, "\u5df1": 9108, "\u0561": 9109, "\u737b": 9110, "\ub298\uc5b4\uc11c_": 9111, "311": 9112, "\ud56d\uacf5\uc744_": 9113, "\ubc18\ub300\ud574_": 9114, "\uccc7": 9115, "344": 9116, "\ud558\ub2e4\ub2c8": 9117, "\uc815\ub9ac\ub294_": 9118, "\u784f": 9119, "\uc5ec\uc790\ub4e4\uc740_": 9120, "\u6212": 9121, "\u76db": 9122, "\u8d0a": 9123, "\uc120\uc218\uc0c1": 9124, "\uc6b4\uc804\uc790\ub4e4\uc774_": 9125, "\u671b": 9126, "\u5eb5": 9127, "\uc544\uc2a4\ud0c0": 9128, "\u8f9b": 9129, "\ub098\uc624_": 9130, "\u25bc": 9131, "\uca98": 9132, "\u5e03": 9133, "\u0422": 9134, "\ubc14\uc774\uc758_": 9135, "\ud55c\uad6d\ubbfc": 9136, "\uaf3f": 9137, "\u723e": 9138, "\ub77c\uc774\uac00_": 9139, "\u7661": 9140, "\ucd95\uad6c\ub2e8_": 9141, "\u2219": 9142, "\u5411": 9143, "\u812b": 9144, "\ucf00\uc774\ub294_": 9145, "\uc548\uc804\uc790": 9146, "\u044d": 9147, "1\ub9cc\uc6d0\uc744_": 9148, "\u5177": 9149, "\u0e23": 9150, "\u5287": 9151, "\ud569\uc758\ud574_": 9152, "4700": 9153, "\uc0ac\ubb34_": 9154, "\uc81c\uc870\uc0ac\uc640_": 9155, "\ud754\ub4e4\uc5b4": 9156, "\ud5f4": 9157, "\ud654\uc7a5\uae30_": 9158, "plan": 9159, "\u0643": 9160, "\u00ea": 9161, "\ubc14\uc774\uc5d0_": 9162, "\u838a": 9163, "\uc140\ub85c": 9164, "\u6700": 9165, "\u5099": 9166, "\u026a": 9167, "\u0e32": 9168, "\ub9d0\ud588\ub2e4_": 9169, "\uc0b4\uc544\ub098\ub294_": 9170, "\u525b": 9171, "\u30e1": 9172, "\u30c7": 9173, "45\ub144": 9174, "322": 9175, "\uc9c0\uc9c0\ub3c4\ub294_": 9176, "\u5c04": 9177, "\u7165": 9178, "\u5e0c": 9179, "\ud30c\uc774\uac00_": 9180, "\uafce": 9181, "\u59d4": 9182, "\u25d1": 9183, "\u683c": 9184, "\ud50c\ub808\uc774\uc5b4\ub97c_": 9185, "\u85dd": 9186, "\u5065": 9187, "\ucb50": 9188, "SN_": 9189, "\ub300\ud559\uad50\uc721": 9190, "\u6669": 9191, "\uc0bc\uc131\uc804\uc5d0\uc11c_": 9192, "\uc788\uc5c8\uace0\uc694": 9193, "\uc218\ub3c4\uac00_": 9194, "\ubbb4": 9195, "\u0418": 9196, "ila": 9197, "\ubb61": 9198, "\u3070": 9199, "\u69ff": 9200, "\u7136": 9201, "\uc2dc\ub300\uc5d0\uc11c_": 9202, "\ud565": 9203, "\u91ab": 9204, "\uc9c0\ud558\uba70_": 9205, "\u7a05": 9206, "1280": 9207, "\u3148": 9208, "\ud574\ub2f9\ud55c_": 9209, "426": 9210, "465": 9211, "\ud683": 9212, "\u81e8": 9213, "\ud574\uc11d\uc740_": 9214, "\uc2dc\uc544\ud30c": 9215, "\u5fae": 9216, "\u554f": 9217, "\u094d": 9218, "\uc608\uc220\uc744_": 9219, "\u8cea": 9220, "\u30d1": 9221, "\u30cf": 9222, "\ube8c": 9223, "\u96d9": 9224, "\ud3c9\uac00\uc758_": 9225, "\uc778\ub2e4\uba74_": 9226, "\u5c6c": 9227, "\uc6b4\uc804\uc740_": 9228, "\u0930": 9229, "\u041e": 9230, "\ub098\uc130\ub2e4\ub294_": 9231, "\ud0a4\uc2a4\uc5d0_": 9232,
[...]
